<unk>	0
<s>	0
</s>	0
▁	-3.48863
▁-	-4.18692
s	-4.61042
.	-4.72775
,	-4.83267
▁de	-4.83914
)	-4.93479
▁(	-5.20868
-	-5.20947
▁|	-5.35349
!	-5.46858
:	-5.51458
'	-5.54774
▁2019	-5.61266
▁a	-5.6867
a	-5.85345
]	-5.91736
▁la	-5.92592
e	-5.93025
】	-5.95107
▁[	-5.99302
▁2	-6.07098
▁1	-6.22723
/	-6.23081
▁#	-6.23745
▁en	-6.2793
"	-6.28879
▁【	-6.29404
i	-6.29756
▁"	-6.31758
▁in	-6.34201
(	-6.35144
_	-6.35411
?	-6.3891
▁the	-6.39017
t	-6.3978
1	-6.41431
n	-6.41566
▁e	-6.42455
o	-6.46569
2	-6.56907
m	-6.57591
▁3	-6.58016
r	-6.58868
3	-6.6622
▁2018	-6.66636
4	-6.66933
d	-6.67425
▁di	-6.67745
k	-6.6841
の	-6.68931
▁/	-6.68932
▁video	-6.7418
▁el	-6.74404
▁do	-6.7532
▁o	-6.76319
y	-6.76646
▁no	-6.83469
▁to	-6.84868
...	-6.85863
▁в	-6.87218
▁&	-6.87374
▁of	-6.88201
▁y	-6.89478
▁4	-6.90648
▁:	-6.92288
카톡	-6.93019
▁i	-6.93381
7	-6.94358
c	-6.97741
▁vs	-6.98326
ョ	-6.98497
▁da	-6.98813
▁5	-6.99907
▁live	-7.0014
▁le	-7.00357
▁na	-7.03756
▁con	-7.03814
ø	-7.04869
g	-7.05301
p	-7.05389
▁l	-7.06505
【	-7.0672
u	-7.07167
的	-7.07847
후불	-7.08361
а	-7.09149
en	-7.12328
▁un	-7.15831
er	-7.16281
ه	-7.16872
▁و	-7.17935
▁and	-7.17948
▁2017	-7.18855
100%	-7.19946
v	-7.20285
es	-7.20426
▁para	-7.22581
ة	-7.23444
▁by	-7.23635
l	-7.25904
|	-7.26341
》	-7.26755
!!	-7.26791
h	-7.26797
▁que	-7.27446
▁fortnite	-7.27747
▁del	-7.27761
▁||	-7.30731
x	-7.30757
▁10	-7.311
▁d	-7.32307
▁se	-7.32586
z	-7.32613
▁me	-7.36709
▁на	-7.37002
ي	-7.3703
b	-7.38404
▁em	-7.40792
5	-7.41072
▁part	-7.41333
da	-7.42494
▁on	-7.42823
an	-7.44458
▁du	-7.46119
▁في	-7.46902
▁и	-7.47397
la	-7.48894
▁с	-7.48919
▁for	-7.49034
▁6	-7.49977
▁ال	-7.51125
▁mi	-7.51539
com	-7.5238
▁من	-7.53003
▁al	-7.53171
」	-7.53841
in	-7.54626
▁7	-7.55547
、	-7.56951
▁new	-7.57568
ing	-7.57777
!!!	-7.60181
▁v	-7.60628
・	-7.60885
▁hd	-7.61534
▁com	-7.61611
を	-7.62315
안마	-7.63653
▁x	-7.63758
f	-7.64162
▁2016	-7.64724
te	-7.64745
~	-7.65307
na	-7.6581
#	-7.6588
ta	-7.66078
で	-7.66474
de	-7.66619
▁los	-7.6663
▁8	-7.66649
▁s	-7.67225
▁w	-7.67232
،	-7.68015
が	-7.69513
6	-7.7031
е	-7.72291
▁with	-7.72498
「	-7.74061
▁les	-7.75194
に	-7.75252
w	-7.75324
no	-7.75882
年	-7.76252
大	-7.77453
▁ep	-7.77569
▁!	-7.77727
▁c	-7.78701
▁12	-7.78981
의	-7.79037
▁19	-7.79088
▁como	-7.79733
▁+	-7.7985
co	-7.80029
re	-7.80196
▁song	-7.81209
▁г	-7.81425
и	-7.81791
▁z	-7.81986
▁m	-7.82568
▁at	-7.83195
▁my	-7.83373
do	-7.83634
▁por	-7.83844
le	-7.84048
▁9	-7.84216
日	-7.84863
ـ	-7.85026
▁et	-7.85711
️	-7.86499
ed	-7.87087
▁tv	-7.8714
▁11	-7.87522
▁20	-7.87752
月	-7.88399
to	-7.89032
▁2015	-7.89175
▁《	-7.89918
▁@	-7.90462
▁15	-7.90946
&	-7.92135
▁के	-7.92305
▁à	-7.93994
▁18	-7.94365
ka	-7.94614
▁parte	-7.94728
▁si	-7.95067
”	-7.95259
▁ke	-7.95644
▁su	-7.9582
+	-7.95895
▁b	-7.96014
▁te	-7.96777
8	-7.97291
▁il	-7.97324
▁'	-7.97419
콜걸샵	-7.9776
▁free	-7.98116
li	-7.98171
▁٢٠١٩	-7.98664
’	-7.99045
人	-7.9953
▁minecraft	-8.00307
ы	-8.00567
▁का	-8.00761
al	-8.01511
▁)	-8.01684
ne	-8.02029
▁cover	-8.02201
tv	-8.02363
《	-8.02422
と	-8.02753
▁is	-8.03085
▁16	-8.03389
▁ps	-8.0429
▁13	-8.0544
ا	-8.06051
▁tu	-8.06062
▁game	-8.06148
▁des	-8.06185
▁play	-8.06574
▁ma	-8.07238
▁17	-8.07605
▁#1	-8.07983
j	-8.08497
070	-8.08821
ma	-8.08994
9	-8.10214
man	-8.10223
10	-8.1033
..	-8.10406
▁24	-8.10703
▁14	-8.10805
▁der	-8.10887
▁2014	-8.10924
▁pro	-8.10945
이	-8.10956
ات	-8.11086
%	-8.11277
▁dj	-8.12476
ت	-8.12478
了	-8.13289
。	-8.1343
▁top	-8.13437
th	-8.13952
me	-8.14044
se	-8.14384
▁по	-8.14713
▁k	-8.15286
ra	-8.1562
el	-8.15814
ar	-8.15929
▁die	-8.16011
ك	-8.16123
▁dan	-8.16821
▁fire	-8.1684
▁ب	-8.1783
▁you	-8.1796
▁per	-8.18079
▁re	-8.18462
on	-8.18538
▁super	-8.18647
▁g	-8.18657
ch	-8.18975
у	-8.19429
go	-8.19764
*	-8.20326
▁में	-8.20514
▁p	-8.20555
ti	-8.2087
▁30	-8.20885
▁n	-8.21018
▁t	-8.21079
▁r	-8.21426
▁2013	-8.21431
▁sur	-8.2209
ca	-8.22223
ni	-8.22303
▁ت	-8.22688
▁full	-8.2316
si	-8.23409
예약	-8.23756
live	-8.23829
▁sa	-8.24147
▁की	-8.24424
▁على	-8.24803
▁//	-8.25113
▁mobile	-8.25357
▁how	-8.25594
▁как	-8.26045
一	-8.26542
小	-8.27028
hd	-8.27227
▁21	-8.27813
م	-8.28088
▁–	-8.28745
mp	-8.29218
▁ve	-8.30861
▁go	-8.31288
ya	-8.3135
は	-8.31713
▁love	-8.31773
▁م	-8.32492
▁man	-8.32548
▁trailer	-8.32563
▁mit	-8.3292
و	-8.33242
▁é	-8.33457
▁lo	-8.34156
▁es	-8.34157
▁ft	-8.34516
여	-8.34631
[	-8.34941
▁um	-8.34984
▁episode	-8.3531
▁ل	-8.3559
7575	-8.35732
▁je	-8.36115
▁مع	-8.3634
▁una	-8.36465
▁an	-8.36877
▁f	-8.36984
▁25	-8.36992
▁be	-8.37841
▁第	-8.38132
ki	-8.38375
▁2012	-8.38555
▁ka	-8.39017
mi	-8.39081
子	-8.39635
ية	-8.39732
di	-8.39841
▁u	-8.39966
ی	-8.40382
ов	-8.40432
▁und	-8.40697
//	-8.40764
▁ي	-8.40807
▁не	-8.40917
▁solo	-8.41134
▁las	-8.41649
▁san	-8.41889
▁за	-8.42381
▁22	-8.42395
▁dance	-8.42428
▁j	-8.42466
ce	-8.4263
▁show	-8.42639
un	-8.43443
❤	-8.43832
ba	-8.43887
ko	-8.43935
▁life	-8.43974
▁ver	-8.44212
▁black	-8.44519
▁23	-8.44714
▁h	-8.44958
▁best	-8.45
ro	-8.4522
第	-8.45786
sa	-8.45976
▁film	-8.46442
▁pe	-8.46731
不	-8.46997
출장샵	-8.47214
▁world	-8.47243
▁#2	-8.47264
▁news	-8.47302
▁im	-8.47375
▁music	-8.47403
▁day	-8.47423
ndo	-8.47976
▁remix	-8.48065
▁let	-8.48346
▁so	-8.48614
▁online	-8.49041
▁vivo	-8.49254
▁as	-8.49386
▁ا	-8.50162
集	-8.5021
▁intro	-8.50698
part	-8.50722
▁equipe	-8.51234
100	-8.51308
19	-8.51423
▁ne	-8.51445
▁mc	-8.51496
▁gameplay	-8.51563
▁youtube	-8.51877
▁vlog	-8.51897
▁gta	-8.52157
▁stream	-8.52234
▁status	-8.52293
▁ya	-8.52831
▁“	-8.53327
11	-8.53441
st	-8.53685
▁pubg	-8.53711
lo	-8.53819
ка	-8.53933
▁clip	-8.54024
▁для	-8.54078
kan	-8.54438
기	-8.54584
▁cara	-8.54605
上	-8.54829
as	-8.55105
▁dailymotion	-8.55258
at	-8.55487
▁au	-8.55535
▁26	-8.5556
12	-8.56064
ين	-8.56606
▁!!	-8.57066
▁pour	-8.57157
▁up	-8.57167
▁it	-8.57418
출장마사지	-8.5778
ps	-8.57953
가	-8.58066
▁am	-8.58703
vs	-8.58804
ن	-8.59053
ler	-8.59078
▁das	-8.59169
中	-8.60112
▁01	-8.60213
q	-8.60367
я	-8.60419
ja	-8.60574
▁ca	-8.60743
▁يا	-8.60828
ia	-8.61262
▁?	-8.61292
▁eu	-8.61704
▁27	-8.61843
ال	-8.61966
▁28	-8.62146
』	-8.62157
é	-8.62161
▁dia	-8.6223
▁wa	-8.62609
0	-8.63161
▁*	-8.63184
之	-8.6349
▁ta	-8.63652
일	-8.63836
▁meu	-8.63875
콜걸	-8.63894
the	-8.64014
am	-8.64131
ly	-8.64165
“	-8.64327
wa	-8.64347
版	-8.64463
ri	-8.64491
▁final	-8.64789
▁ao	-8.64819
▁2011	-8.65175
ep	-8.65349
▁ki	-8.65448
||	-8.65792
ha	-8.66067
ge	-8.66176
▁avec	-8.66302
▁one	-8.66326
os	-8.66822
▁о	-8.67014
▁~	-8.671
▁от	-8.67177
20	-8.67201
us	-8.6766
▁hai	-8.67682
▁van	-8.67747
is	-8.67998
ها	-8.68012
je	-8.68086
▁all	-8.68183
▁tutorial	-8.68229
▁os	-8.68442
▁को	-8.68575
ga	-8.68589
▁से	-8.68754
ки	-8.68996
▁محمد	-8.69032
▁cos	-8.69573
15	-8.69842
2019	-8.69843
▁son	-8.69964
▁cu	-8.6998
ng	-8.70343
ie	-8.70391
▁29	-8.70747
ci	-8.71055
।	-8.71115
▁حالات	-8.71208
em	-8.71301
▁star	-8.71876
▁из	-8.72187
▁hot	-8.72196
▁mai	-8.72661
▁par	-8.72704
;	-8.73028
24	-8.73039
be	-8.73052
▁ngày	-8.73147
lar	-8.73213
pa	-8.73225
▁hay	-8.73332
新	-8.73396
▁po	-8.73603
ل	-8.7378
▁và	-8.74151
▁cho	-8.74164
▁tập	-8.74279
18	-8.74433
}	-8.74701
м	-8.74726
▁「	-8.74847
▁co	-8.74876
▁«	-8.74989
▁الله	-8.75255
bo	-8.75493
▁của	-8.75555
za	-8.75665
▁canal	-8.75719
▁ko	-8.75964
지	-8.76088
有	-8.76168
9649{	-8.76226
▁ما	-8.76403
▁from	-8.76545
出	-8.76757
▁op	-8.76939
▁02	-8.76966
▁test	-8.77
回	-8.77032
▁casa	-8.77082
ul	-8.7714
ku	-8.77457
에	-8.77622
▁vídeo	-8.77952
il	-8.78671
美	-8.78846
it	-8.7893
▁review	-8.79036
▁100	-8.79058
▁yang	-8.79621
▁amor	-8.80012
16	-8.80187
ى	-8.80196
о	-8.8031
ी	-8.80463
和	-8.80529
َ	-8.80788
▁!!!	-8.81148
@	-8.81203
한	-8.81561
mo	-8.81876
▁team	-8.81911
▁الم	-8.81965
30	-8.82171
▁real	-8.82273
nya	-8.82282
ter	-8.82337
den	-8.8236
로	-8.82457
▁لا	-8.82882
{	-8.82953
天	-8.8308
▁я	-8.83178
▁واتس	-8.83186
ten	-8.83485
な	-8.83513
▁whatsapp	-8.83553
▁une	-8.83559
▁von	-8.83719
▁war	-8.83814
14	-8.83873
을	-8.84022
17	-8.84166
13	-8.84315
lu	-8.84371
▁dans	-8.8455
회	-8.84841
▁sub	-8.84915
시	-8.84938
▁❤	-8.85029
도	-8.85059
被	-8.85067
▁03	-8.85345
▁battle	-8.85488
▁серия	-8.85532
▁mix	-8.85894
在	-8.8597
cover	-8.86091
스	-8.86471
ом	-8.86532
ver	-8.86692
▁_	-8.86787
ب	-8.86804
▁español	-8.86974
▁الحلقة	-8.87018
ke	-8.8716
010	-8.87181
ru	-8.87293
ur	-8.87493
▁dos	-8.87778
▁vol	-8.8781
▁है	-8.87936
▁dr	-8.88007
고	-8.88203
▁ba	-8.88251
://	-8.88393
▁season	-8.88513
с	-8.88613
so	-8.88893
▁tháng	-8.88917
▁ce	-8.89121
▁auto	-8.89154
山	-8.89214
手	-8.89798
øø	-8.90081
▁أ	-8.90163
▁legends	-8.9029
va	-8.90382
▁minha	-8.90486
월	-8.90504
▁часть	-8.90532
or	-8.90792
▁fifa	-8.90955
▁05	-8.90956
▁لل	-8.91199
▁2010	-8.91363
▁pra	-8.91702
我	-8.91715
▁mas	-8.91863
▁اب	-8.92061
▁car	-8.92115
▁عن	-8.9212
ان	-8.9235
출장오피걸	-8.92385
▁ने	-8.92571
by	-8.92804
▁não	-8.9299
▁anh	-8.93263
리	-8.93316
▁ho	-8.93477
은	-8.93492
▁may	-8.93504
▁стрим	-8.93638
▁time	-8.9381
01	-8.94026
»	-8.9409
▁mais	-8.94115
que	-8.94154
ty	-8.9422
▁movie	-8.9425
会	-8.94251
▁mini	-8.94493
▁indonesia	-8.94556
下	-8.94722
▁stars	-8.94912
▁bo	-8.94951
نا	-8.95035
用	-8.95169
대	-8.95431
et	-8.95577
家	-8.95687
三	-8.95993
▁04	-8.96495
▁sobre	-8.96804
년	-8.96982
ny	-8.97084
】【	-8.9715
gi	-8.97316
心	-8.97342
▁can	-8.97457
▁q	-8.9766
▁uma	-8.97851
5222	-8.97972
▁mon	-8.98023
화	-8.98072
▁mar	-8.98091
▁bu	-8.98295
▁nam	-8.9833
ون	-8.98504
你	-8.9855
水	-8.9871
▁her	-8.98748
ー	-8.98944
▁nhất	-8.98951
▁vida	-8.98974
▁06	-8.99174
د	-8.99326
▁ha	-8.99563
▁big	-8.9964
▁09	-8.99649
▁tour	-9.00118
출장콜걸	-9.00259
▁ni	-9.0034
い	-9.00352
tu	-9.00367
▁baby	-9.0042
▁pa	-9.00471
fa	-9.00659
▁funny	-9.00742
im	-9.0089
▁पर	-9.01057
▁pt	-9.01163
▁у	-9.0118
bi	-9.01204
▁your	-9.01413
ze	-9.01469
pe	-9.01515
사	-9.02103
▁roblox	-9.02193
▁girl	-9.02681
話	-9.02717
▁za	-9.02745
生	-9.02873
다	-9.03039
est	-9.03093
る	-9.0323
女	-9.0371
▁auf	-9.03719
▁ra	-9.03874
ный	-9.03896
▁story	-9.03904
▁31	-9.03909
▁وال	-9.03927
х	-9.04029
も	-9.04183
▁out	-9.04205
▁50	-9.04293
인	-9.04293
io	-9.04322
▁bang	-9.04351
▁ii	-9.04383
▁видео	-9.04648
▁الشيخ	-9.04867
▁pc	-9.0498
好	-9.05068
▁pas	-9.05148
न	-9.05428
▁07	-9.05517
▁bar	-9.05536
아	-9.05627
전지역출장마사지	-9.05739
▁08	-9.06088
花	-9.06186
▁{	-9.06332
▁red	-9.06526
『	-9.06542
ve	-9.06627
▁we	-9.06641
ع	-9.06876
▁or	-9.06887
▁vid	-9.07023
▁va	-9.07057
▁but	-9.07164
▁che	-9.07183
ش	-9.07339
打	-9.07351
▁videos	-9.07388
▁ti	-9.07422
▁anak	-9.07472
▁royale	-9.07571
자	-9.07577
▁sin	-9.07777
video	-9.07864
▁0	-9.07878
র	-9.07881
출장안마	-9.08072
▁🔴	-9.08368
▁ser	-9.08414
장	-9.08464
▁club	-9.08683
ِ	-9.08728
수	-9.09021
実況	-9.09036
?!	-9.09154
vi	-9.09266
▁#3	-9.09384
po	-9.09432
▁feat	-9.09447
▁yo	-9.09482
부	-9.09656
2018	-9.09861
神	-9.09907
й	-9.10397
▁...	-9.10476
....	-9.10972
王	-9.11011
ir	-9.11023
ton	-9.11105
▁jugando	-9.11123
▁like	-9.11235
分	-9.11335
▁..	-9.11617
어	-9.11648
▁ge	-9.11846
▁https	-9.11942
▁lagu	-9.12094
▁ن	-9.12143
du	-9.12168
▁st	-9.12338
con	-9.12623
▁cap	-9.12854
是	-9.12925
ek	-9.13293
▁challenge	-9.13445
출장출장마사지	-9.13613
net	-9.13668
高	-9.1386
▁к	-9.13939
▁mal	-9.14032
!?	-9.14092
▁mundo	-9.14186
▁park	-9.14245
金	-9.1429
▁chi	-9.14324
▁¿	-9.1442
op	-9.14578
▁für	-9.14599
▁ku	-9.14856
ف	-9.14876
▁vi	-9.14901
▁first	-9.14947
▁met	-9.15001
期	-9.15235
my	-9.15395
ّ	-9.1543
dan	-9.15468
▁năm	-9.15874
क	-9.15958
س	-9.1612
ス	-9.16227
ry	-9.16233
▁nova	-9.16242
cha	-9.1637
▁plus	-9.16413
▁بال	-9.16443
動画	-9.1654
23	-9.16569
▁ini	-9.16674
ा	-9.16775
25	-9.16792
che	-9.16822
ر	-9.16933
ني	-9.16975
ल	-9.17138
▁người	-9.17374
동	-9.17383
▁rap	-9.17397
전	-9.17636
um	-9.17655
wmv	-9.17761
▁nhạc	-9.17887
출장아가씨	-9.17909
men	-9.18082
▁festival	-9.18096
▁fr	-9.18146
▁android	-9.18154
.1	-9.1819
▁ben	-9.18258
son	-9.183
ando	-9.18369
▁mo	-9.18456
마사지황형	-9.18464
fi	-9.18624
jo	-9.19074
는	-9.19178
▁ga	-9.19194
から	-9.19343
▁không	-9.19398
▁ber	-9.19632
라	-9.19672
г	-9.19772
21	-9.20051
▁band	-9.20374
地	-9.20389
48	-9.20423
り	-9.20484
ю	-9.20493
▁про	-9.20551
म	-9.20677
fr	-9.20755
▁ter	-9.20899
▁후불	-9.21084
han	-9.21101
ung	-9.2114
▁brawl	-9.212
▁abril	-9.21544
к	-9.21645
▁this	-9.22139
ная	-9.22221
行	-9.2232
ที่	-9.22352
nt	-9.22403
후기	-9.22432
▁mod	-9.2255
▁mu	-9.22626
ой	-9.22787
up	-9.22857
mu	-9.22911
der	-9.22981
▁علي	-9.23006
▁ex	-9.23068
し	-9.23086
▁make	-9.23172
▁meme	-9.23186
구	-9.23311
▁مسلسل	-9.2333
▁version	-9.234
到	-9.23461
서	-9.23511
▁در	-9.23687
т	-9.23741
▁qui	-9.2393
출장	-9.24014
▁bir	-9.24038
▁ein	-9.24252
!!!!	-9.24401
田	-9.24688
▁deutsch	-9.24785
su	-9.24894
超	-9.24956
视频	-9.24969
chi	-9.25121
😍	-9.25216
▁ar	-9.25247
02	-9.25302
▁ball	-9.25357
น	-9.25362
▁city	-9.25407
22	-9.25457
▁ai	-9.25473
ь	-9.2561
ada	-9.25761
▁sp	-9.25835
▁what	-9.25874
車	-9.26083
land	-9.2612
정	-9.26218
ая	-9.26273
▁phim	-9.26377
▁dragon	-9.26389
▁come	-9.26405
ck	-9.26682
▁sexy	-9.2672
ho	-9.26754
▁audio	-9.26768
▁việt	-9.27028
▁school	-9.27127
▁www	-9.27139
▁nuevo	-9.27185
official	-9.27371
▁brasil	-9.27382
法	-9.27389
ger	-9.27444
les	-9.2747
▁bi	-9.27521
▁grand	-9.27536
ai	-9.27608
▁2009	-9.27675
성	-9.27811
▁nu	-9.27893
▁karaoke	-9.27951
▁kids	-9.28002
▁ع	-9.28156
rd	-9.28188
ado	-9.28255
か	-9.2832
ó	-9.28397
े	-9.28487
▁بن	-9.28673
市	-9.28838
道	-9.28938
र	-9.28987
ción	-9.29002
看	-9.29104
▁đi	-9.29177
▁official	-9.292
ah	-9.29218
fortnite	-9.29347
▁이	-9.29519
​	-9.29853
編	-9.29937
ak	-9.30047
▁cs	-9.30061
tan	-9.30137
cc	-9.30144
per	-9.30432
▁main	-9.30496
▁اجمل	-9.30503
ji	-9.30574
▁april	-9.30636
ção	-9.30664
太	-9.30807
▁he	-9.31303
☆	-9.31458
ye	-9.31466
♥	-9.3158
▁fa	-9.31611
本	-9.31667
▁pre	-9.31856
▁night	-9.31939
▁tok	-9.32011
▁air	-9.32218
tor	-9.32243
tion	-9.32492
ศ	-9.3259
يه	-9.32637
▁facebook	-9.32675
vo	-9.32814
▁don	-9.32908
hi	-9.32936
▁•	-9.32961
▁ali	-9.32988
▁rock	-9.33349
ค	-9.33431
▁cha	-9.33545
78	-9.3387
海	-9.3389
øa	-9.34152
▁كل	-9.34158
he	-9.34242
27	-9.34404
★	-9.34525
▁back	-9.34704
д	-9.34728
ita	-9.34733
진	-9.34785
く	-9.34847
미	-9.34864
ers	-9.34918
▁est	-9.3493
나	-9.35009
ে	-9.35059
▁get	-9.35075
▁sex	-9.35136
▁over	-9.35166
ــ	-9.35212
▁directo	-9.35243
系	-9.35257
▁home	-9.35361
ff	-9.35413
▁ad	-9.35417
前	-9.35482
03	-9.35491
文	-9.35688
를	-9.35755
部	-9.35756
ح	-9.35792
ad	-9.3587
▁art	-9.35983
mos	-9.36084
°	-9.36218
▁ops	-9.36243
歌	-9.36275
▁بث	-9.36511
▁]	-9.36659
신	-9.36856
bu	-9.3698
都	-9.37036
光	-9.3707
nd	-9.37194
ُ	-9.37263
오피	-9.37471
cu	-9.37503
zi	-9.37529
원	-9.37561
▁ci	-9.37641
成	-9.37737
स	-9.37771
dj	-9.37911
▁ou	-9.37944
▁non	-9.3801
26	-9.38049
▁60	-9.3814
과	-9.38168
▁영상	-9.38238
▁novo	-9.38301
ı	-9.38427
kar	-9.38442
▁có	-9.38537
▁men	-9.38543
??	-9.38554
▁hindi	-9.38754
▁tik	-9.38812
▁что	-9.3882
mar	-9.38881
bar	-9.38893
в	-9.38966
真	-9.38968
▁boy	-9.39146
트	-9.39289
💔	-9.39358
▁با	-9.39596
ные	-9.39605
avi	-9.39641
▁oficial	-9.39669
▁hack	-9.39733
▁cat	-9.39794
▁league	-9.39825
▁ji	-9.40012
▁us	-9.40025
pi	-9.40096
▁den	-9.40103
▁hi	-9.40165
ft	-9.40168
▁unboxing	-9.40192
28	-9.40217
nie	-9.40276
위	-9.40281
▁road	-9.40282
ন	-9.4037
▁bölüm	-9.40394
▁sem	-9.40474
7301	-9.40501
주	-9.40563
▁¡	-9.40618
▁er	-9.40636
全	-9.40767
台	-9.40787
dos	-9.40808
ment	-9.40817
▁duo	-9.40855
者	-9.40968
br	-9.40989
名	-9.41019
▁tak	-9.41252
▁slime	-9.41252
▁а	-9.41307
▁was	-9.41558
드	-9.41647
▁😍	-9.41732
ม	-9.41835
方	-9.4186
ের	-9.41968
와	-9.42029
来	-9.42144
▁جديد	-9.4223
▁are	-9.42325
29	-9.42515
车	-9.42556
▁jogando	-9.4287
力	-9.42986
音	-9.42998
▁promo	-9.43024
▁comment	-9.43034
на	-9.43484
pro	-9.43523
gen	-9.43526
전지역출장마사지샵	-9.43541
ine	-9.43595
▁dead	-9.43681
وا	-9.43704
ok	-9.4393
·	-9.44051
する	-9.44183
ً	-9.44307
▁làm	-9.44325
▁bad	-9.4433
さん	-9.44542
▁watch	-9.44638
▁zu	-9.44674
▁mr	-9.44826
í	-9.4493
ج	-9.45014
▁capitulo	-9.45058
pl	-9.45388
多	-9.4539
😂	-9.45409
▁banda	-9.45689
▁high	-9.45731
▁download	-9.45746
▁kim	-9.45774
▁ich	-9.46158
▁beat	-9.46171
ย	-9.46205
▁tra	-9.46251
▁الا	-9.46328
▁long	-9.46401
▁ف	-9.46622
舞	-9.46658
ку	-9.46665
ก	-9.46709
▁ist	-9.46831
▁radio	-9.46915
▁40	-9.47121
▁jak	-9.47137
비	-9.47161
상	-9.47193
ina	-9.47222
50	-9.47314
▁happy	-9.47316
min	-9.47327
▁tình	-9.47395
id	-9.47453
▁ค	-9.47498
(1)	-9.47502
線	-9.47516
▁grupo	-9.47622
お	-9.47644
与	-9.4765
마	-9.47715
▁interview	-9.47892
2017	-9.481
▁dari	-9.48103
60	-9.48334
▁party	-9.48665
ส	-9.48731
▁fazer	-9.48756
one	-9.48909
🔥	-9.49016
▁под	-9.49032
출장마사지후기	-9.49051
dy	-9.49136
▁santa	-9.49152
情	-9.49199
ner	-9.49248
ber	-9.4936
▁cup	-9.49391
▁और	-9.49579
▁ja	-9.49709
要	-9.49721
][	-9.49788
▁studio	-9.49955
ना	-9.5015
ii	-9.50382
▁instagram	-9.50399
▁max	-9.50452
面	-9.50474
we	-9.50564
▁là	-9.506
▁grande	-9.50764
▁اغنية	-9.50796
最	-9.50811
▁fi	-9.50939
.2	-9.50965
色	-9.5099
▁jo	-9.51051
▁mới	-9.51118
▁teen	-9.51266
▁más	-9.51289
ๆ	-9.51327
dor	-9.51352
里	-9.51364
▁‘	-9.51455
吃	-9.51591
sen	-9.51664
▁channel	-9.5169
deutsch	-9.51696
后	-9.51732
▁#4	-9.51818
▁♥	-9.51861
▁call	-9.51881
▁maria	-9.51894
▁आ	-9.52128
▁chơi	-9.5217
▁до	-9.52209
▁ch	-9.52233
▁fun	-9.52261
就	-9.52287
zo	-9.52327
▁della	-9.52378
▁🔥	-9.52404
اء	-9.52507
parte	-9.52532
事	-9.52533
中国	-9.52671
愛	-9.52719
リ	-9.52772
▁mario	-9.52786
san	-9.53001
ง	-9.53122
白	-9.53143
-1	-9.53227
09	-9.53246
ana	-9.53392
▁sport	-9.53508
ं	-9.53659
▁france	-9.53665
▁kar	-9.53682
해	-9.5373
二	-9.53788
▁subs	-9.53839
▁not	-9.53884
▁ابو	-9.53953
星	-9.5407
▁highlights	-9.54119
▁games	-9.54136
▁nueva	-9.54137
www	-9.54263
new	-9.54267
▁ab	-9.54339
▁simulator	-9.54397
▁trong	-9.54402
▁mei	-9.54428
▁special	-9.54433
но	-9.54702
た	-9.54714
機	-9.54777
▁『	-9.54831
▁ana	-9.54844
▁house	-9.54925
口	-9.55047
♡	-9.55078
출장마사지황형	-9.55267
城	-9.55281
▁march	-9.55324
(2)	-9.55398
▁terbaru	-9.5541
ik	-9.55451
▁june	-9.55527
明	-9.55593
▁fan	-9.55608
ル	-9.55732
▁dengan	-9.55749
ク	-9.55812
ju	-9.55828
會	-9.55861
▁về	-9.55878
▁br	-9.55917
cho	-9.55938
ズ	-9.55954
▁paris	-9.56044
▁😂	-9.56056
▁nie	-9.56091
▁aus	-9.56148
▁mega	-9.56251
×	-9.56321
き	-9.56353
▁cam	-9.56468
▁completo	-9.56476
제	-9.5652
男	-9.56535
ый	-9.56575
ला	-9.5661
▁xe	-9.56681
▁king	-9.56718
▁dil	-9.56759
▁обзор	-9.56812
ky	-9.56829
▁fc	-9.56832
▁skin	-9.56855
世界	-9.57152
▁juni	-9.57235
소	-9.5731
▁contra	-9.57417
▁win	-9.57553
▁entrevista	-9.57585
▁piano	-9.57697
lı	-9.57717
▁will	-9.57904
ken	-9.57931
tra	-9.5795
ア	-9.58051
▁yêu	-9.58118
ने	-9.58151
40	-9.58197
에서	-9.5826
호	-9.58321
sh	-9.58339
▁大	-9.58394
▁power	-9.5844
=	-9.58472
▁vai	-9.58551
04	-9.58559
戦	-9.58561
ban	-9.58582
▁entre	-9.58691
lan	-9.58723
▁ita	-9.58943
영상	-9.5895
▁hit	-9.59046
▁são	-9.59208
▁untuk	-9.59289
▁gacha	-9.59372
▁mp	-9.59373
full	-9.5944
▁ban	-9.59541
▁2008	-9.59689
▁小	-9.59695
yo	-9.59703
त	-9.59795
▁camera	-9.5986
let	-9.59867
ria	-9.6012
ben	-9.60203
老	-9.60412
cos	-9.60454
▁بعد	-9.60488
우	-9.60565
み	-9.60566
曲	-9.6061
▁after	-9.60664
▁speed	-9.60664
tt	-9.60735
ノ	-9.60843
pp	-9.60865
▁teaser	-9.6104
▁ze	-9.61058
▁update	-9.61086
▁без	-9.61143
▁mejor	-9.6116
▁★	-9.61251
▁din	-9.61299
07	-9.6136
▁inter	-9.61386
▁mode	-9.61412
▁pi	-9.61416
▁nhà	-9.61473
أ	-9.61546
line	-9.6157
▁pan	-9.61628
▁fait	-9.61669
05	-9.61787
▁khi	-9.61797
▁hotel	-9.61878
info	-9.61977
ll	-9.61984
06	-9.62016
▁mayo	-9.62073
▁ram	-9.6211
ron	-9.62206
pc	-9.62215
路	-9.62252
▁app	-9.62319
cs	-9.62422
ق	-9.6243
よ	-9.62511
ster	-9.62674
▁jan	-9.62816
31	-9.62927
▁tag	-9.62952
▁clash	-9.63163
▁gran	-9.63193
leri	-9.63239
▁mis	-9.63241
▁вы	-9.63243
free	-9.63361
ste	-9.63394
▁arena	-9.63434
gan	-9.635
▁1.	-9.6364
.3	-9.63642
car	-9.63699
das	-9.63725
ic	-9.63745
ト	-9.63757
-2	-9.63849
777.	-9.63979
▁good	-9.63982
▁ak	-9.6399
野	-9.64091
▁tin	-9.64361
▁الوصف	-9.64485
▁شاهد	-9.64495
原	-9.64509
▁ri	-9.64533
п	-9.64539
▁tom	-9.64572
▁música	-9.64594
ut	-9.64597
▁những	-9.64713
▁мая	-9.64771
ем	-9.6488
▁motor	-9.64895
▁old	-9.64946
入	-9.64979
▁moto	-9.65
川	-9.65005
만	-9.6507
▁يونيو	-9.65099
nia	-9.65111
ting	-9.65184
á	-9.65225
▁capítulo	-9.65449
•	-9.65535
\	-9.65581
mer	-9.65612
タ	-9.65798
▁الأ	-9.65804
ol	-9.65874
▁songs	-9.65921
ling	-9.65955
ou	-9.65991
日本	-9.65999
▁mein	-9.66138
▁ح	-9.66181
式	-9.66225
重	-9.66243
▁você	-9.66287
pt	-9.66304
▁với	-9.66312
▁teil	-9.66321
♪	-9.66334
▁maio	-9.66335
▁var	-9.66436
▁gay	-9.66453
▁hari	-9.66478
▁bin	-9.66505
sp	-9.66526
ों	-9.66565
nu	-9.66624
▁far	-9.66716
▁minh	-9.66722
▁az	-9.6675
▁este	-9.66758
ito	-9.66765
▁blue	-9.66805
▁при	-9.66842
ラ	-9.66852
hu	-9.66873
cm	-9.66964
点	-9.66988
死	-9.67069
▁apex	-9.67135
▁جدا	-9.67141
มา	-9.67174
▁wedding	-9.67177
lik	-9.67197
#1	-9.67198
н	-9.67255
▁cách	-9.67263
▁به	-9.67395
보	-9.67428
ão	-9.67609
✨	-9.67706
▁مايو	-9.67745
▁со	-9.67859
▁pop	-9.67874
▁face	-9.67923
ran	-9.6794
هم	-9.67951
tar	-9.68002
▁rio	-9.68109
▁wars	-9.68126
▁hard	-9.68193
रा	-9.68275
元	-9.68377
lin	-9.68427
安	-9.68541
▁off	-9.68543
▁god	-9.68694
店	-9.68699
▁إ	-9.6871
ö	-9.68729
長	-9.68738
‍	-9.68755
▁tại	-9.68845
▁om	-9.68889
風	-9.68914
▁pr	-9.68955
西	-9.69279
▁lu	-9.69364
편	-9.69415
ang	-9.6946
▁ro	-9.69468
火	-9.69571
▁programa	-9.69724
오	-9.69766
▁sky	-9.69768
ları	-9.69855
star	-9.69893
▁فيديو	-9.69919
cion	-9.69929
▁lol	-9.70121
▁از	-9.70184
출	-9.70232
하	-9.70297
▁kill	-9.70352
세	-9.70399
カ	-9.7056
や	-9.70585
コ	-9.70586
▁loisir	-9.70638
ของ	-9.70883
ker	-9.70889
تي	-9.70892
▁عبد	-9.70893
▁رمضان	-9.70914
ок	-9.70961
外	-9.7116
▁pen	-9.71207
▁little	-9.71238
▁wie	-9.71277
▁juan	-9.71282
す	-9.71463
▁more	-9.71469
▁serie	-9.71514
▁primeiro	-9.71595
방	-9.71603
마사지	-9.71605
▁ru	-9.71641
玩	-9.71715
eng	-9.71784
▁sus	-9.718
▁играю	-9.71857
▁марта	-9.71917
ক	-9.71929
▁khan	-9.71933
▁lyrics	-9.71944
fe	-9.71988
ram	-9.71989
ら	-9.72025
age	-9.72059
夜	-9.7206
▁girls	-9.72094
▁gol	-9.72284
영	-9.72294
▁esta	-9.72309
林	-9.72374
▁jam	-9.7246
ो	-9.72522
ч	-9.72608
木	-9.72651
mv	-9.72652
▁kết	-9.72654
xx	-9.72842
▁bus	-9.72858
島	-9.72859
▁ye	-9.72865
ল	-9.72865
38	-9.72931
vlog	-9.72965
マ	-9.73057
카지노	-9.73125
香	-9.73197
▁gratis	-9.73236
秀	-9.73286
99	-9.73334
can	-9.7334
▁ng	-9.73408
走	-9.73597
خ	-9.73621
▁gold	-9.73696
▁euro	-9.73759
▁yeni	-9.73781
ex	-9.73837
산	-9.73838
▁open	-9.73868
प	-9.73875
▁just	-9.73963
って	-9.74119
ले	-9.74153
▁dark	-9.74176
bb	-9.7419
▁marzo	-9.74256
国	-9.74258
▁الجزء	-9.74278
▁liên	-9.74286
_2019	-9.74294
강	-9.74301
篇	-9.74303
▁fin	-9.74315
电影	-9.74351
号	-9.74362
▁एक	-9.74384
▁cinta	-9.74499
मा	-9.7455
ด	-9.74612
做	-9.74643
선	-9.74645
去	-9.74646
ной	-9.74663
▁direct	-9.7475
▁́	-9.74807
▁।	-9.7485
時	-9.74971
야	-9.74979
▁sol	-9.75027
▁demo	-9.75064
İ	-9.75068
mm	-9.75166
บ	-9.75261
▁cực	-9.75278
day	-9.75329
▁lego	-9.7533
كم	-9.75397
开	-9.75464
▁bangla	-9.75468
机	-9.75567
▁lucu	-9.75583
ز	-9.75619
7333	-9.75633
gar	-9.7566
치	-9.75671
特	-9.75675
▁concert	-9.75715
▁primer	-9.75823
▁हो	-9.75879
res	-9.75923
▁she	-9.75984
ий	-9.75992
▁pu	-9.76003
▁david	-9.76128
▁john	-9.76157
▁mars	-9.76181
▁edit	-9.76191
▁công	-9.76232
身	-9.76263
▁pl	-9.76317
▁min	-9.76345
▁bé	-9.76396
요	-9.76397
ド	-9.76428
ज	-9.76512
ab	-9.76554
四	-9.76583
▁about	-9.76725
▁his	-9.76738
08	-9.76823
▁انا	-9.76873
▁india	-9.77023
〜	-9.77064
출장맛사지	-9.77075
▁tan	-9.77183
▁janeiro	-9.773
mas	-9.7746
レ	-9.77526
▁hacer	-9.7753
得	-9.77537
cy	-9.7754
▁singh	-9.77543
▁tri	-9.77627
▁vidéo	-9.77629
这	-9.77648
▁xd	-9.77693
▁that	-9.77698
後	-9.77825
▁box	-9.78091
爱	-9.78182
▁soy	-9.7819
▁kan	-9.78252
▁series	-9.7826
▁edition	-9.78275
ley	-9.78317
يا	-9.78328
ли	-9.78348
▁#5	-9.78362
▁li	-9.78479
▁temporada	-9.78506
▁sun	-9.78557
学	-9.78599
▁ج	-9.78673
▁제	-9.78678
▁lagi	-9.78694
▁thanh	-9.78785
▁set	-9.78796
▁hoa	-9.78812
та	-9.78821
▁سورة	-9.78866
los	-9.78906
▁đẹp	-9.78934
nte	-9.78997
▁sale	-9.79
内	-9.79012
▁день	-9.79033
2016	-9.79163
ые	-9.79183
シ	-9.79291
▁deus	-9.79326
▁diy	-9.79391
è	-9.79515
▁cum	-9.79576
ет	-9.79652
ren	-9.79655
sin	-9.79698
▁dream	-9.7983
▁street	-9.79864
▁match	-9.79878
能	-9.79912
▁nos	-9.7997
73	-9.7997
▁german	-9.79988
▁ay	-9.80023
명	-9.80032
▁tem	-9.80094
차	-9.80183
ص	-9.80323
gu	-9.8054
▁:)	-9.8056
した	-9.80561
ей	-9.80603
▁}	-9.80638
유	-9.80681
pan	-9.80715
▁200	-9.8079
球	-9.80895
▁kon	-9.80944
化	-9.80954
て	-9.80991
▁baba	-9.81021
▁junho	-9.8106
▁july	-9.81069
654}	-9.81072
ez	-9.81186
กัน	-9.8132
ın	-9.81359
ac	-9.81408
▁white	-9.81492
▁जी	-9.81524
yan	-9.81532
식	-9.81564
▁한	-9.81576
▁pokemon	-9.81611
!【	-9.81801
ต	-9.81817
う	-9.81882
▁2.	-9.81887
▁bay	-9.81894
prod	-9.81898
vol	-9.81931
▁seu	-9.82009
▁har	-9.8204
ट	-9.82044
؟	-9.82136
▁anti	-9.82143
▁ile	-9.82218
rá	-9.8222
▁bts	-9.82268
▁بدون	-9.82268
▁كيف	-9.82288
片	-9.82442
▁hero	-9.82448
▁sound	-9.82474
▁junio	-9.82497
主	-9.82508
zz	-9.82561
ใน	-9.82713
▁jogo	-9.82741
ке	-9.82847
▁iphone	-9.82878
90	-9.82911
▁sinh	-9.82922
era	-9.82928
▁mama	-9.8293
見	-9.82944
van	-9.82972
중	-9.83045
▁김	-9.83064
着	-9.83067
▁ان	-9.8311
▁新	-9.83135
б	-9.83141
▁س	-9.83179
无	-9.83213
说	-9.83268
▁bạn	-9.83292
▁luna	-9.83372
▁trump	-9.83425
님	-9.83427
▁run	-9.83443
拉	-9.83451
▁100%	-9.83473
▁=	-9.83478
▁baru	-9.83607
▁evil	-9.83684
開	-9.83698
ナ	-9.83811
▁bom	-9.83821
▁project	-9.8386
南	-9.83861
▁squad	-9.83897
ф	-9.83931
▁gái	-9.83951
카	-9.83955
▁유	-9.84085
▁90	-9.84153
sta	-9.84162
▁это	-9.84189
का	-9.84256
▁अ	-9.84286
性	-9.84337
▁بل	-9.84354
無	-9.84359
за	-9.84363
ô	-9.84384
▁ش	-9.84458
▁master	-9.84512
▁lan	-9.84548
▁حب	-9.8456
ما	-9.84567
pur	-9.84649
▁bei	-9.84665
▁todo	-9.84742
▁last	-9.84777
▁julio	-9.84819
笑	-9.84823
▁sua	-9.8489
▁раз	-9.84895
▁gia	-9.84895
▁신	-9.84924
▁bản	-9.84959
ता	-9.84984
▁family	-9.8513
dar	-9.8513
▁sam	-9.85136
들	-9.85181
ш	-9.85252
لي	-9.85335
▁कर	-9.85347
▁usa	-9.85355
▁bhojpuri	-9.85385
▁partie	-9.85388
len	-9.85483
tes	-9.85497
▁miss	-9.85561
▁апреля	-9.85641
米	-9.85746
▁week	-9.85761
ちゃん	-9.85865
▁học	-9.8588
▁—	-9.85886
german	-9.85927
▁via	-9.85937
▁tiktok	-9.85968
▁mv	-9.8603
wi	-9.86096
▁игры	-9.86149
▁juli	-9.86253
au	-9.86281
zione	-9.86299
nda	-9.8638
流	-9.86393
minecraft	-9.86403
▁máy	-9.86419
용	-9.86482
为	-9.86511
▁water	-9.86526
не	-9.86553
▁survival	-9.86724
การ	-9.86809
조	-9.86817
万	-9.87062
头	-9.87083
tr	-9.87149
▁fu	-9.87245
mon	-9.87258
▁membuat	-9.87301
하는	-9.87306
▁jesus	-9.87319
▁ام	-9.87333
tas	-9.87336
단	-9.8743
发	-9.87438
▁июня	-9.8748
ว	-9.87549
▁papa	-9.87567
ম	-9.87568
war	-9.8757
石	-9.87605
연	-9.87611
द	-9.87625
▁musica	-9.8764
ara	-9.87652
▁cd	-9.87808
▁vous	-9.87827
▁aku	-9.87853
連	-9.87946
feat	-9.88
▁اليوم	-9.88054
他	-9.88094
空	-9.88134
게임	-9.88311
平	-9.88341
战	-9.88386
kc	-9.88397
ами	-9.88423
경	-9.8845
▁وا	-9.88462
ах	-9.88484
場	-9.88498
▁style	-9.88506
nes	-9.88507
▁sad	-9.88507
▁#6	-9.8851
▁80	-9.88623
▁sou	-9.88635
▁shop	-9.88639
▁orang	-9.88684
л	-9.88722
▁ăn	-9.88742
니	-9.88748
▁av	-9.88806
村	-9.88858
正	-9.88868
▁ada	-9.88896
▁rosa	-9.88913
reality	-9.88931
▁od	-9.8899
???	-9.89024
▁só	-9.89076
配信	-9.89109
▁março	-9.89123
го	-9.89187
ж	-9.89207
무	-9.89241
▁asmr	-9.89303
व	-9.89326
頭	-9.89352
▁album	-9.89428
▁pes	-9.89462
▁latest	-9.89499
▁1080	-9.89554
▁💔	-9.89654
▁아	-9.89662
物	-9.89744
五	-9.89953
32	-9.90066
من	-9.90077
▁livestream	-9.90081
斯	-9.90096
▁برنامج	-9.90143
재	-9.90171
▁plan	-9.90248
لا	-9.90284
比	-9.90298
▁ở	-9.90301
へ	-9.90321
▁het	-9.90391
cia	-9.90412
오피걸	-9.90418
▁مارس	-9.90492
▁मे	-9.90625
ン	-9.90764
▁now	-9.90771
▁quốc	-9.90808
lefive	-9.90879
▁especial	-9.90903
им	-9.9097
马	-9.9098
ام	-9.9107
sz	-9.91104
ven	-9.91215
龍	-9.91237
$	-9.91268
▁د	-9.91332
rt	-9.91397
pu	-9.91411
zy	-9.91433
唱	-9.91469
wo	-9.91479
▁día	-9.915
une	-9.91501
▁الت	-9.91547
51	-9.91562
美女	-9.91596
目	-9.91596
▁فى	-9.91602
mmd	-9.91617
长	-9.91695
だ	-9.9186
tik	-9.91878
dia	-9.91958
▁cute	-9.92012
首	-9.9205
▁прохождение	-9.92056
想	-9.92178
des	-9.92214
▁cái	-9.92214
▁yu	-9.92252
初	-9.92317
▁media	-9.92401
▁bikin	-9.92425
▁festa	-9.92428
▁liga	-9.92472
ido	-9.92497
▁mw	-9.92633
gacha	-9.92709
▁muito	-9.92725
2015	-9.92806
▁fight	-9.92806
▁ed	-9.92819
▁مباراة	-9.92856
▁got	-9.92877
✅	-9.92933
位	-9.92963
▁down	-9.93008
tm	-9.93077
▁đầu	-9.93117
▁بين	-9.93143
こ	-9.93243
6739{	-9.93276
▁level	-9.93507
ท	-9.93537
▁gun	-9.93544
eu	-9.93567
▁light	-9.93623
▁cùng	-9.93636
ant	-9.93662
news	-9.93682
▁green	-9.93692
再	-9.93716
민	-9.93756
▁boss	-9.93788
▁young	-9.93838
品	-9.93857
风	-9.93857
ไป	-9.93898
自	-9.93963
▁playing	-9.93985
▁guitar	-9.94037
현	-9.94055
ป	-9.94066
ить	-9.94112
▁nach	-9.94118
▁web	-9.9415
▁viral	-9.94185
ดี	-9.94234
las	-9.94256
ów	-9.94258
are	-9.94259
▁has	-9.94306
▁مو	-9.94342
李	-9.94343
▁sc	-9.94421
▁english	-9.94433
▁chat	-9.94465
▁bị	-9.94472
ब	-9.94491
▁quân	-9.94518
gd	-9.94532
バ	-9.94547
▁카톡	-9.94559
да	-9.94574
加	-9.94653
46	-9.94687
ts	-9.94717
▁مباشر	-9.94769
体	-9.94804
वा	-9.94807
bel	-9.94822
▁احمد	-9.94865
ное	-9.94928
▁ju	-9.95026
來	-9.9504
駅	-9.95091
▁pack	-9.95129
▁bass	-9.95167
모	-9.95215
ds	-9.95223
▁semana	-9.95239
▁è	-9.95321
ٌ	-9.95335
top	-9.95352
▁동영상	-9.95436
▁ac	-9.95447
▁está	-9.95468
▁dẫn	-9.95521
▁way	-9.9553
声	-9.95569
▁новый	-9.95612
ली	-9.95622
▁carlos	-9.95634
▁باسم	-9.95636
れ	-9.95654
▁todos	-9.95682
▁melhor	-9.95759
▁dé	-9.95796
德	-9.95802
▁historia	-9.95822
.....	-9.95836
め	-9.95874
▁amigos	-9.95943
▁февраля	-9.95944
▁онлайн	-9.96024
▁opening	-9.96035
又	-9.96127
zu	-9.96129
으로	-9.9613
▁thế	-9.96133
mente	-9.96139
ই	-9.96223
sch	-9.96257
▁year	-9.96369
▁mia	-9.96548
98	-9.9666
▁prima	-9.96666
起	-9.96673
▁fevereiro	-9.96677
つ	-9.96684
#2	-9.96686
ия	-9.96784
▁tr	-9.968
▁madrid	-9.96802
也	-9.96804
哥	-9.96805
▁mata	-9.96821
ê	-9.96837
qui	-9.9694
tro	-9.97064
▁summer	-9.97146
▁sha	-9.97155
▁tips	-9.97194
▁chu	-9.97278
▁trên	-9.9738
▁các	-9.97407
▁nba	-9.97421
▁february	-9.97491
gue	-9.97553
▁hu	-9.97624
▁오	-9.9763
▁original	-9.97648
▁maison	-9.97666
▁spot	-9.97692
▁six	-9.97706
fer	-9.97772
▁design	-9.97784
▁tam	-9.97804
▁играем	-9.9781
卡	-9.9782
爆	-9.97824
▁gaming	-9.9786
です	-9.97931
▁500	-9.97959
ú	-9.97973
阿	-9.98008
bra	-9.98022
▁sau	-9.9811
▁model	-9.98174
猫	-9.9823
▁een	-9.98239
▁thi	-9.98247
ub	-9.98257
금	-9.98296
快	-9.98368
相	-9.98372
▁мой	-9.98388
▁med	-9.98393
전지역	-9.98438
▁м	-9.98479
▁gi	-9.98499
▁heart	-9.98532
▁legend	-9.98557
по	-9.9857
ड	-9.98653
▁طريقة	-9.98745
▁foto	-9.98749
ได้	-9.98795
▁royal	-9.9882
mb	-9.98838
king	-9.98839
▁michael	-9.98871
キ	-9.98905
▁giá	-9.98907
▁fe	-9.99041
秒	-9.99122
ş	-9.99136
nin	-9.9916
▁수	-9.99175
''	-9.99233
ский	-9.99331
분	-9.99372
آ	-9.9942
サ	-9.99438
▁tim	-9.9944
▁bon	-9.99478
▁comedy	-9.99493
yu	-9.99517
可	-9.99553
cam	-9.99562
▁melhores	-9.99643
え	-9.99666
ไม่	-9.99682
▁dar	-9.99707
ни	-9.99713
▁nya	-9.9973
▁kara	-9.99814
▁luis	-9.9991
กับ	-9.99932
р	-9.9996
▁short	-10.0007
▁post	-10.0009
▁rainbow	-10.0009
▁paulo	-10.001
▁arcade	-10.0015
▁hand	-10.0023
▁لو	-10.0023
fc	-10.0024
▁сезон	-10.0025
▁latino	-10.0026
▁copa	-10.003
of	-10.003
즈	-10.0034
▁xem	-10.0048
elle	-10.005
黑	-10.0051
전지역출장안마	-10.0052
film	-10.0053
▁map	-10.0054
▁''	-10.0056
har	-10.0057
▁line	-10.0057
▁ये	-10.0058
uri	-10.0059
▁villa	-10.0063
out	-10.0065
▁mari	-10.0067
放	-10.0067
▁sal	-10.0073
▁يوليو	-10.0076
馬	-10.008
龙	-10.0082
▁two	-10.0082
2997	-10.0096
▁cor	-10.0096
rat	-10.01
ма	-10.0102
イ	-10.0103
추천	-10.0108
shi	-10.0111
▁고	-10.0112
▁monster	-10.0112
ツ	-10.0113
▁febrero	-10.0122
ation	-10.0124
को	-10.0132
▁tele	-10.0134
ct	-10.0134
▁mil	-10.0136
500	-10.0136
▁2007	-10.0146
ini	-10.0146
▁streaming	-10.0147
ла	-10.0149
ใจ	-10.0151
▁mad	-10.0158
ロ	-10.0159
宮	-10.016
▁sen	-10.0166
qc	-10.0167
200	-10.0176
个	-10.018
▁1000	-10.0189
▁bài	-10.0191
定	-10.0195
ร	-10.0195
▁wy	-10.0199
▁magic	-10.02
▁japan	-10.0207
▁hình	-10.0208
ล	-10.0216
▁truck	-10.0217
▁january	-10.0219
ム	-10.0235
▁siêu	-10.0241
與	-10.0245
▁daniel	-10.025
通	-10.0257
▁hat	-10.0258
yi	-10.026
→	-10.0261
▁cz	-10.0264
▁sul	-10.0266
ali	-10.0268
吗	-10.0269
val	-10.0269
▁전	-10.027
ap	-10.0271
з	-10.0284
▁топ	-10.0287
▁qu	-10.0288
2012	-10.0289
▁animation	-10.0299
利	-10.0301
য়	-10.0303
ą	-10.0309
▁friends	-10.0315
ata	-10.0321
tel	-10.0328
▁tre	-10.0333
▁hướng	-10.0336
▁compilation	-10.0337
▁तो	-10.0338
ista	-10.0339
▁70	-10.0341
▁ost	-10.0352
当	-10.036
ся	-10.0365
2014	-10.0366
💕	-10.0368
0054{	-10.0369
▁montage	-10.0372
▁bmw	-10.0372
ę	-10.0374
ica	-10.0379
食	-10.0381
▁vez	-10.0389
ми	-10.0389
▁все	-10.0392
box	-10.0393
▁beautiful	-10.0396
▁sar	-10.0396
▁paul	-10.0398
▁beach	-10.04
▁박	-10.0404
▁amigo	-10.0411
▁saison	-10.0414
▁mau	-10.0416
▁इस	-10.0417
▁player	-10.0419
▁اغنيه	-10.042
代	-10.042
ł	-10.0422
uk	-10.0424
▁alex	-10.0438
2013	-10.044
▁об	-10.0443
▁nasıl	-10.0446
对	-10.0452
理	-10.0453
▁jean	-10.0456
35	-10.046
ist	-10.0463
fo	-10.0466
del	-10.0467
▁فبراير	-10.0475
生活	-10.0479
▁raja	-10.0484
show	-10.0485
▁بس	-10.0487
▁multi	-10.0488
さ	-10.0489
ग	-10.0498
▁pm	-10.0499
▁aux	-10.0501
▁ek	-10.0508
北	-10.0513
ская	-10.0514
sha	-10.0516
して	-10.0517
노	-10.0517
立	-10.0522
很	-10.0528
اب	-10.0534
过	-10.0534
▁يوم	-10.0543
▁300	-10.0548
ह	-10.0551
dr	-10.0551
▁christmas	-10.0558
0062{	-10.0558
▁birthday	-10.056
型	-10.0568
世	-10.0574
ser	-10.0578
ных	-10.0578
▁folge	-10.0579
▁না	-10.0579
اني	-10.0581
4-	-10.0582
▁most	-10.0587
wan	-10.0589
▁2)	-10.0592
▁roma	-10.0601
向	-10.0602
▁trung	-10.0605
直播	-10.0608
▁easy	-10.0612
あ	-10.0613
▁who	-10.0624
▁vie	-10.0625
▁thành	-10.0626
▁bande	-10.0628
ニ	-10.0635
tin	-10.0635
春	-10.0636
▁الف	-10.0637
▁jr	-10.0638
▁cm	-10.0644
▁pat	-10.0655
▁porn	-10.0672
▁anime	-10.0673
ته	-10.0673
▁musical	-10.0678
art	-10.0686
客	-10.069
▁anos	-10.0692
次	-10.0694
▁modo	-10.0703
▁finale	-10.0704
▁35	-10.0711
▁kumar	-10.0711
mc	-10.0715
타	-10.0716
ま	-10.0716
▁reaction	-10.0716
dd	-10.0718
▁pela	-10.0719
▁ses	-10.072
▁china	-10.0722
▁✅	-10.0723
ari	-10.0728
▁group	-10.073
rs	-10.0731
®	-10.0735
▁disney	-10.0737
▁look	-10.0756
바	-10.0756
▁شيلة	-10.0765
00	-10.0768
ہ	-10.078
▁angel	-10.0781
▁gt	-10.0781
cz	-10.0782
▁enero	-10.0788
ian	-10.079
ino	-10.079
把	-10.0791
love	-10.0793
菜	-10.0793
don	-10.0798
克	-10.08
boy	-10.08
▁link	-10.0802
▁phần	-10.0811
▁sao	-10.0815
▁dem	-10.0818
점	-10.0821
送	-10.0824
志	-10.0825
62	-10.0825
肉	-10.0834
ね	-10.0834
ブ	-10.0836
▁वीडियो	-10.0838
80	-10.0842
▁class	-10.0846
波	-10.0848
合	-10.0848
gh	-10.0853
红	-10.0857
作	-10.086
ani	-10.0865
▁2.0	-10.087
able	-10.0875
▁zum	-10.0876
▁dog	-10.0876
▁เพลง	-10.0877
ano	-10.0882
▁cá	-10.0887
파	-10.0888
信	-10.0888
▁rank	-10.0891
▁الي	-10.0907
jan	-10.0913
▁adam	-10.0921
om	-10.0922
ие	-10.0926
inha	-10.0928
300	-10.0933
▁hát	-10.0938
▁tay	-10.0941
for	-10.0942
▁một	-10.0943
▁नहीं	-10.0943
局	-10.0951
ミ	-10.0951
▁event	-10.0951
▁action	-10.0955
!!!!!	-10.0955
▁시	-10.096
اد	-10.0965
雨	-10.0967
▁اول	-10.097
▁say	-10.0976
▁soccer	-10.0993
36	-10.0994
ん	-10.0996
غ	-10.1002
▁1)	-10.101
站	-10.101
包	-10.1018
박	-10.102
▁today	-10.1022
▁pig	-10.1024
ئ	-10.1025
audio	-10.1026
▁pub	-10.1028
▁wild	-10.1032
her	-10.1032
▁partida	-10.1033
▁bien	-10.1034
▁vendre	-10.1036
屋	-10.1037
▁واتساب	-10.1037
▁بي	-10.1038
▁food	-10.1049
ко	-10.1062
pubg	-10.1064
ит	-10.1064
69}	-10.1064
▁#7	-10.107
러	-10.1074
▁لم	-10.1074
▁tiếng	-10.1077
▁honda	-10.1079
▁iii	-10.1086
▁ang	-10.1094
▁thu	-10.1099
言	-10.1102
その	-10.1102
ero	-10.1114
문	-10.1119
▁cô	-10.1129
포	-10.1134
ик	-10.1135
點	-10.114
ک	-10.1143
▁moi	-10.1145
cr	-10.1147
pen	-10.1148
▁lil	-10.115
▁dios	-10.115
▁oh	-10.1152
▁hoy	-10.1152
▁ok	-10.1154
▁ass	-10.1159
▁google	-10.116
▁đại	-10.1164
ネ	-10.1164
▁меня	-10.1165
▁über	-10.1166
김	-10.1169
ddr	-10.1174
▁alla	-10.1181
▁cr	-10.1182
▁cómo	-10.1183
▁hip	-10.1186
▁대	-10.1186
▁wir	-10.1189
▁val	-10.1189
▁west	-10.119
▁mes	-10.1192
way	-10.1192
國	-10.1195
▁train	-10.1196
ça	-10.1196
チ	-10.1207
▁32	-10.1209
▁mobil	-10.1213
公	-10.1214
器	-10.1215
ted	-10.1216
▁لي	-10.1217
कर	-10.1219
▁न	-10.1219
ত	-10.1227
将	-10.1228
(3)	-10.123
ให้	-10.1231
في	-10.124
▁किया	-10.1246
ガ	-10.1246
▁mejores	-10.1253
谷	-10.1253
▁filme	-10.1255
エ	-10.126
พ	-10.1263
▁क्या	-10.1264
sub	-10.1264
ire	-10.1265
2011	-10.1266
nde	-10.127
if	-10.127
👍	-10.1275
▁vor	-10.1276
øe	-10.1277
雪	-10.1278
gra	-10.1283
par	-10.1288
▁end	-10.1292
▁xbox	-10.1292
▁land	-10.1294
▁abo	-10.1296
게	-10.1297
cie	-10.1297
".	-10.1299
aq	-10.13
▁bal	-10.1302
町	-10.1304
意	-10.1308
▁julho	-10.1309
교회	-10.1309
千	-10.1311
組	-10.1312
▁sim	-10.1313
▁trip	-10.1315
所	-10.132
▁feliz	-10.132
▁😱	-10.1323
--	-10.1328
眼	-10.133
ç	-10.1333
ée	-10.134
▁años	-10.1343
▁майнкрафт	-10.1344
▁collection	-10.1344
▁clan	-10.1345
😘	-10.1345
ব	-10.1349
ط	-10.1349
ого	-10.1349
공	-10.1351
ник	-10.1356
av	-10.1357
游戏	-10.1357
석	-10.1369
mad	-10.1372
▁haul	-10.1379
▁ten	-10.1382
ent	-10.1382
game	-10.1384
5327{	-10.1385
르	-10.1391
ジ	-10.1392
▁나	-10.1394
奇	-10.1395
tal	-10.1397
班	-10.1397
▁360	-10.1397
inho	-10.1398
ion	-10.14
▁monde	-10.1401
▁لعبة	-10.1403
▁января	-10.1404
▁voor	-10.1407
те	-10.1411
网	-10.1413
▁have	-10.142
천	-10.1422
øn	-10.1426
ot	-10.1428
▁क	-10.1429
っ	-10.1435
还	-10.1438
▁scene	-10.1438
▁jalan	-10.1439
▁игра	-10.144
▁lee	-10.1442
té	-10.1445
키	-10.1446
▁ты	-10.145
書	-10.1452
▁allah	-10.1457
東	-10.1458
ach	-10.1462
▁internet	-10.1462
▁लिए	-10.1465
ッ	-10.1466
▁ninja	-10.1467
তে	-10.1468
▁stop	-10.147
법	-10.1472
▁nacional	-10.1479
time	-10.1482
craft	-10.1484
▁led	-10.1493
lj	-10.1498
▁cao	-10.1502
▁mac	-10.1502
ros	-10.1503
희	-10.1503
▁bra	-10.1508
ida	-10.1509
▁see	-10.151
遭	-10.1513
士	-10.1516
▁bro	-10.1526
反	-10.1527
▁random	-10.1528
时	-10.1529
ダ	-10.153
▁som	-10.153
▁transmissão	-10.1534
清	-10.1535
▁crazy	-10.1536
▁म	-10.1538
😱	-10.154
▁б	-10.1547
å	-10.1548
▁마	-10.1549
ного	-10.155
bre	-10.155
ă	-10.1551
▁ice	-10.1558
▁ли	-10.1572
▁أبريل	-10.1574
개	-10.1575
▁kh	-10.1579
▁sh	-10.1582
터	-10.1584
▁wo	-10.1586
▁jadi	-10.1587
▁ll	-10.1591
▁►	-10.1595
66}	-10.1597
😎	-10.1602
fu	-10.161
▁هو	-10.1611
▁cuando	-10.162
mat	-10.1624
▁실시간	-10.1639
تك	-10.1642
▁يناير	-10.1645
▁resident	-10.1651
▁thai	-10.166
オ	-10.1663
▁ever	-10.1667
oyo	-10.1668
周	-10.167
ham	-10.167
▁pelo	-10.1676
ী	-10.1677
▁ultra	-10.1682
사이트	-10.1686
lah	-10.1688
ble	-10.1691
▁भी	-10.1695
▁stage	-10.1695
▁primera	-10.1696
ウ	-10.1697
▁dei	-10.17
鬼	-10.1702
▁ae	-10.1707
▁raj	-10.1709
tur	-10.171
▁galaxy	-10.171
▁saat	-10.1715
33	-10.1718
▁moon	-10.1719
▁server	-10.1719
场	-10.1719
▁الثاني	-10.1723
play	-10.1725
度	-10.1735
▁moments	-10.1742
メ	-10.1742
rio	-10.1742
39	-10.1745
▁정	-10.1747
nh	-10.1749
bk	-10.175
га	-10.1755
▁ap	-10.1761
▁ama	-10.1766
▁نايت	-10.1767
ова	-10.1769
vin	-10.1772
안	-10.1773
tre	-10.1775
▁talk	-10.178
ato	-10.178
祭	-10.1781
▁33	-10.1782
▁santos	-10.1787
▁ol	-10.179
oo	-10.1792
কে	-10.1795
▁kills	-10.1795
▁hàng	-10.1799
▁bis	-10.1803
ใหม่	-10.1804
rin	-10.1809
▁camp	-10.181
티	-10.1818
58	-10.182
ور	-10.1823
end	-10.1823
ante	-10.1825
吧	-10.1825
章	-10.1826
ig	-10.1827
max	-10.1828
না	-10.1835
iz	-10.1838
디	-10.184
ار	-10.1843
mann	-10.1854
▁apa	-10.186
oh	-10.1861
▁فورت	-10.1861
iya	-10.1862
▁faire	-10.1868
▁soul	-10.1871
飞	-10.1877
った	-10.1882
시출장샵	-10.1885
▁الى	-10.1885
mt	-10.1889
ْ	-10.1895
▁gets	-10.1897
▁مهم	-10.1899
88	-10.1901
▁가	-10.1904
flv	-10.1904
八	-10.1908
▁$	-10.1908
▁sea	-10.1911
▁room	-10.1912
▁secret	-10.192
▁клип	-10.1924
án	-10.1925
▁được	-10.1928
▁स	-10.1929
ц	-10.193
▁samsung	-10.1931
▁cruz	-10.1931
▁dal	-10.1934
▁troll	-10.1937
ев	-10.194
過	-10.194
▁☆	-10.1942
影	-10.1947
解	-10.1948
sk	-10.1949
▁ham	-10.1949
民	-10.1957
movie	-10.1957
▁toy	-10.1963
▁sang	-10.1965
▁kali	-10.1968
宝	-10.197
-3	-10.1972
▁bersama	-10.1977
▁bán	-10.1979
▁saint	-10.1981
▁ultimate	-10.1984
▁training	-10.1985
▁police	-10.1987
ity	-10.1995
면	-10.1995
区	-10.1998
▁nas	-10.2012
▁ولا	-10.2013
zen	-10.2016
ix	-10.2023
▁sama	-10.2031
▁العالم	-10.2033
▁ré	-10.2034
ин	-10.2036
▁sweet	-10.2038
ती	-10.2043
▁our	-10.2043
ゲーム	-10.2045
ポ	-10.2045
▁kinder	-10.2046
▁مصر	-10.2046
▁making	-10.205
ো	-10.2054
แล้ว	-10.2062
▁amazing	-10.2063
una	-10.2064
▁base	-10.2065
▁000	-10.2066
▁juego	-10.2066
형	-10.2074
格	-10.2078
স	-10.2079
ré	-10.208
君	-10.209
▁trường	-10.2093
▁động	-10.2097
▁col	-10.2098
chen	-10.2098
▁why	-10.2103
落	-10.2105
▁windows	-10.2106
샵	-10.2106
友	-10.2109
▁sara	-10.2111
ay	-10.2118
tek	-10.2121
▁सबसे	-10.2125
mento	-10.2127
▁hop	-10.2132
नी	-10.2135
▁episodio	-10.2136
季	-10.2136
工	-10.2142
és	-10.2142
▁bella	-10.2145
▁crash	-10.2146
bölüm	-10.2147
▁mera	-10.2148
给	-10.2149
▁cut	-10.215
▁như	-10.2153
▁sta	-10.2153
▁check	-10.2154
^	-10.2155
▁150	-10.2156
meme	-10.2158
초	-10.2161
ning	-10.2162
▁rp	-10.2168
▁alle	-10.2168
▁versi	-10.2169
▁giới	-10.2172
▁canta	-10.2173
▁carnaval	-10.2178
▁hair	-10.2178
▁pastor	-10.2179
血	-10.2179
▁tempo	-10.2179
▁leo	-10.2181
影片	-10.2183
▁color	-10.2186
▁money	-10.2188
77	-10.2188
ov	-10.2189
▁yg	-10.219
ao	-10.2192
▁bug	-10.2194
ি	-10.2196
por	-10.2198
▁race	-10.2198
井	-10.2199
ska	-10.2208
▁안	-10.2216
2】	-10.2219
▁anal	-10.2227
▁tahun	-10.2227
等	-10.2229
動	-10.2236
▁gar	-10.2238
赛	-10.2238
▁или	-10.2248
ras	-10.2258
ня	-10.2265
คน	-10.2266
教	-10.2268
大学	-10.2269
▁custom	-10.227
▁х	-10.2272
▁han	-10.2274
।।	-10.2276
む	-10.2276
▁argentina	-10.2276
▁spa	-10.2278
▁record	-10.2284
张	-10.2287
eur	-10.2287
đ	-10.2288
🔴	-10.229
▁naruto	-10.2299
네	-10.23
▁وت	-10.2301
▁pièces	-10.2303
ns	-10.2306
ое	-10.2311
儿	-10.2311
知	-10.2316
ła	-10.2318
自己	-10.2318
▁trans	-10.2318
tic	-10.2321
ไทย	-10.2322
わ	-10.2322
▁фильм	-10.2324
▁gra	-10.2326
코	-10.2327
pop	-10.2335
▁사	-10.2341
▁mer	-10.2344
▁45	-10.2345
▁đồng	-10.2346
▁ms	-10.2347
ち	-10.2349
▁noticias	-10.2349
▁tôi	-10.235
ер	-10.235
▁iv	-10.2355
▁حزينه	-10.2357
感	-10.2359
وني	-10.2359
▁pod	-10.236
▁ken	-10.2361
▁hp	-10.2362
گ	-10.2368
服	-10.2372
▁gli	-10.2372
ты	-10.2374
less	-10.2375
ков	-10.2378
戰	-10.238
บ้าน	-10.238
▁wwe	-10.2382
ди	-10.2385
▁aula	-10.2386
個	-10.2391
大会	-10.2394
더	-10.2397
一个	-10.2402
kin	-10.2403
य	-10.2404
▁#8	-10.2408
ní	-10.2412
▁غ	-10.2415
▁قناة	-10.2415
레	-10.2415
크	-10.2415
形	-10.2418
▁martin	-10.242
▁rose	-10.2424
▁mag	-10.2425
45	-10.2426
70	-10.2426
强	-10.2428
玉	-10.2433
拍	-10.2436
▁duty	-10.2438
▁vip	-10.2438
▁wow	-10.2439
태	-10.2445
▁amo	-10.2445
▁program	-10.2448
▁buat	-10.2448
▁ger	-10.2452
bro	-10.2453
▁série	-10.2454
34	-10.2457
▁på	-10.2457
▁body	-10.2458
gt	-10.2463
▁ik	-10.247
ライブ	-10.2474
sel	-10.2474
▁if	-10.2476
국	-10.2478
▁vo	-10.2479
先	-10.248
▁epic	-10.248
ite	-10.2488
▁رقص	-10.249
▁kata	-10.2491
▁build	-10.2492
या	-10.2492
▁gel	-10.2494
破	-10.2502
リー	-10.2504
▁italia	-10.2506
▁pin	-10.2508
▁gen	-10.251
ห	-10.2511
ções	-10.2511
▁costa	-10.2512
وي	-10.2517
▁jay	-10.2517
▁walkthrough	-10.2524
ण	-10.2526
rc	-10.2528
▁book	-10.253
ismo	-10.2536
▁nada	-10.2536
▁nhân	-10.2541
52	-10.2544
▁rumah	-10.2545
▁fm	-10.2546
gun	-10.2548
music	-10.2549
mini	-10.2552
▁pak	-10.2558
数	-10.2561
▁boys	-10.2562
▁hoàng	-10.2563
▁funk	-10.257
dir	-10.257
▁dalam	-10.2571
ong	-10.2573
師	-10.2573
▁musik	-10.2574
red	-10.2575
▁từ	-10.2577
她	-10.2577
牛	-10.2578
▁days	-10.2579
▁ford	-10.2583
▁주	-10.2583
tri	-10.2585
chu	-10.2586
▁amar	-10.2589
▁josé	-10.2589
sy	-10.259
nos	-10.259
ło	-10.259
asta	-10.2593
▁junior	-10.2593
▁qua	-10.2595
▁cry	-10.2595
발	-10.2598
55	-10.2598
青	-10.26
남	-10.2612
피	-10.2613
發	-10.2615
古	-10.2618
▁الع	-10.2629
▁surprise	-10.2629
kh	-10.2631
▁pal	-10.2633
江	-10.2637
▁الن	-10.2639
ag	-10.2642
적	-10.2643
▁méxico	-10.2643
▁miguel	-10.2644
all	-10.2646
qr	-10.2649
華	-10.265
lé	-10.2655
▁digital	-10.2658
remix	-10.2659
거	-10.2664
री	-10.2665
▁pedro	-10.2666
▁work	-10.2666
▁mor	-10.2669
▁bij	-10.2671
▁песня	-10.2675
cher	-10.2678
▁गीत	-10.2678
ザ	-10.2679
실	-10.2679
ski	-10.2685
zer	-10.2687
堂	-10.2689
hh	-10.269
夏	-10.2693
▁fornite	-10.2693
life	-10.2696
▁dla	-10.2696
▁people	-10.2701
▁وم	-10.2706
88}	-10.2708
節	-10.2708
nl	-10.271
命	-10.2712
▁bag	-10.2713
▁비	-10.2715
mal	-10.2719
▁zero	-10.2721
💖	-10.2722
▁bình	-10.2725
دي	-10.2725
▁tudo	-10.273
门	-10.2731
▁untitled	-10.2733
演	-10.2734
▁смотреть	-10.2736
▁jack	-10.2736
ля	-10.2739
▁ev	-10.2746
岁	-10.2758
cap	-10.276
▁moment	-10.2762
zf	-10.2763
▁tar	-10.2764
队	-10.2765
▁ตอนที่	-10.2771
隊	-10.2772
▁familia	-10.2773
气	-10.2774
▁sự	-10.2774
▁net	-10.2778
bal	-10.278
sal	-10.278
▁makeup	-10.2796
▁fast	-10.2797
▁다	-10.2798
▁nhật	-10.2799
▁моя	-10.2803
▁sans	-10.2804
kg	-10.2806
モ	-10.2807
プレイ	-10.2808
同	-10.2808
▁sk	-10.2808
양	-10.2818
-5	-10.2819
▁tai	-10.2822
ray	-10.2825
tta	-10.2826
▁social	-10.2826
▁내	-10.2829
준	-10.2829
▁কি	-10.2829
選	-10.2829
▁जून	-10.2832
▁gu	-10.2833
바카라	-10.2836
▁prank	-10.2836
▁made	-10.2837
то	-10.2844
▁قبل	-10.2845
門	-10.2847
展	-10.2854
69	-10.2856
▁ah	-10.2858
행	-10.2859
▁sims	-10.286
▁fall	-10.2865
▁đã	-10.2866
マン	-10.2867
▁mujer	-10.2871
ami	-10.2871
▁broadcast	-10.2874
強	-10.2876
▁nur	-10.2876
▁februari	-10.2879
▁لايك	-10.2883
ث	-10.2895
プ	-10.2895
▁♡	-10.2896
攻略	-10.2898
rus	-10.2899
▁против	-10.2901
`	-10.2904
ビ	-10.2904
女子	-10.2904
▁sie	-10.2905
▁guerra	-10.2907
▁national	-10.291
▁football	-10.2911
│	-10.2912
asi	-10.2913
ते	-10.2913
배	-10.2917
▁flash	-10.292
▁গান	-10.2922
출장업소	-10.2922
56	-10.2925
▁mio	-10.2926
▁only	-10.2927
nik	-10.2929
房	-10.2934
装	-10.2937
▁sala	-10.2938
/12	-10.2941
▁지	-10.2941
gel	-10.2942
😊	-10.2942
▁mine	-10.2942
▁audi	-10.2945
▁هذا	-10.2947
▁machine	-10.2948
он	-10.2948
ã	-10.295
▁się	-10.2951
杀	-10.2958
▁quem	-10.2963
▁हैं	-10.2965
az	-10.2967
▁ना	-10.2968
▁الحب	-10.2972
▁日本	-10.2977
▁total	-10.2986
▁ans	-10.2988
▁dell	-10.2988
রা	-10.299
追	-10.2993
▁kal	-10.2995
......	-10.3
▁ও	-10.3005
bat	-10.3007
ヤ	-10.3009
——	-10.3011
▁بر	-10.3013
▁720	-10.3015
ทํา	-10.3024
▁мы	-10.3025
ตัว	-10.3026
▁bike	-10.3028
英	-10.3034
學	-10.3034
ados	-10.3034
tos	-10.3036
يل	-10.3043
没	-10.3043
速	-10.3045
▁death	-10.3048
▁सा	-10.3049
紹介	-10.3049
ville	-10.3049
▁mission	-10.3052
▁faz	-10.3056
▁af	-10.3057
魔	-10.3058
▁ty	-10.3059
team	-10.3062
▁when	-10.3064
▁اي	-10.3069
ador	-10.3069
ef	-10.3071
ва	-10.3071
▁care	-10.3082
进	-10.3085
フ	-10.3085
▁mình	-10.3089
▁racing	-10.309
▁mira	-10.3091
ть	-10.3092
越	-10.3093
ej	-10.3096
اوي	-10.3096
▁đồ	-10.3098
六	-10.3098
フォートナイト	-10.3102
▁ब	-10.3104
▁hà	-10.3105
▁trai	-10.3105
mpg	-10.3114
ira	-10.3121
4]	-10.3123
lla	-10.3123
▁июля	-10.3124
น้ํา	-10.3126
狂	-10.3127
▁winter	-10.3128
▁aa	-10.3129
sı	-10.313
당	-10.313
▁дом	-10.3134
▁rey	-10.314
▁rai	-10.3141
반	-10.3141
▁sống	-10.3144
400	-10.3145
เป็น	-10.3148
▁guru	-10.315
▁2000	-10.3152
cal	-10.3152
▁소	-10.3153
44	-10.3153
賽	-10.3158
▁indian	-10.3161
▁space	-10.3161
▁voice	-10.3162
建	-10.3164
▁1/2	-10.3166
▁độ	-10.317
para	-10.3171
42	-10.3172
rie	-10.3174
▁bio	-10.3176
▁mỹ	-10.3178
テ	-10.3178
何	-10.3178
af	-10.3181
▁drive	-10.3188
▁primeira	-10.3197
▁trap	-10.3198
cio	-10.3198
프	-10.3201
din	-10.3202
▁start	-10.3213
百	-10.3215
and	-10.3215
グ	-10.3215
剧	-10.3221
街	-10.3226
ین	-10.3227
รัก	-10.3227
1000	-10.3228
▁rc	-10.3229
第一	-10.3236
pre	-10.3238
อ	-10.3241
布	-10.3242
▁😂😂	-10.3243
け	-10.3244
▁james	-10.325
▁th	-10.3255
▁omlet	-10.3261
▁won	-10.3263
图	-10.3263
▁الج	-10.3264
ei	-10.3266
▁fiesta	-10.3277
qué	-10.3277
fan	-10.3279
▁quá	-10.3281
▁fl	-10.3282
▁미	-10.3282
▁gamer	-10.3284
▁mua	-10.3289
dc	-10.3291
‌	-10.3292
के	-10.3292
श	-10.3297
มี	-10.3297
跳	-10.3298
▁centro	-10.3301
▁petit	-10.3302
▁36	-10.3304
倒	-10.3311
▁pvp	-10.3311
▁pokémon	-10.3315
間	-10.3316
▁ano	-10.3321
▁foi	-10.3321
0069{	-10.3322
▁type	-10.3332
直	-10.3341
▁ببجي	-10.3346
▁disco	-10.3353
▁nguyễn	-10.3355
▁diffusion	-10.3355
▁lady	-10.3356
▁santo	-10.3357
▁(2)	-10.3357
▁freestyle	-10.3359
▁oc	-10.3368
만족	-10.3368
▁vr	-10.3371
▁kit	-10.3371
▁bel	-10.3373
▁bur	-10.3373
七	-10.3377
mov	-10.3383
皮	-10.3385
▁card	-10.3389
uh	-10.3389
▁để	-10.339
▁beauty	-10.3393
修	-10.3396
▁preview	-10.3397
▁tha	-10.3397
ball	-10.3405
舞蹈	-10.3407
杯	-10.3408
智	-10.3414
47	-10.3415
▁است	-10.3416
パ	-10.3417
交	-10.3417
역	-10.342
cer	-10.342
▁island	-10.3422
▁point	-10.3423
▁nouvelle	-10.3425
▁rs	-10.3429
يات	-10.343
▁primo	-10.3434
▁ob	-10.3435
▁momentos	-10.3437
▁kid	-10.3437
线	-10.3441
▁transmisión	-10.3441
berg	-10.3447
예	-10.3453
▁mir	-10.3456
▁step	-10.3459
▁aviso	-10.3463
▁ق	-10.3469
▁số	-10.347
梦	-10.3477
😂😂	-10.3477
ハ	-10.348
び	-10.3482
▁আ	-10.3483
▁ala	-10.3484
▁آل	-10.3485
▁chan	-10.3487
▁во	-10.3488
▁escola	-10.349
▁desafio	-10.3491
未	-10.3493
ご	-10.3495
▁bola	-10.3495
লা	-10.35
▁lại	-10.35
▁metro	-10.3501
à	-10.3504
▁sai	-10.3506
isi	-10.3507
ение	-10.3511
ure	-10.3524
土	-10.3526
▁rain	-10.3529
생	-10.3532
▁أن	-10.3534
41	-10.3536
▁34	-10.3537
武	-10.3538
aj	-10.354
ии	-10.3543
▁case	-10.3545
▁belajar	-10.3548
▁hunter	-10.3551
토	-10.3552
54{	-10.3555
▁take	-10.3558
▁avril	-10.3558
段	-10.3558
・・・	-10.3561
▁هل	-10.3566
▁ir	-10.3568
ika	-10.3571
▁الفنان	-10.3574
指	-10.3575
▁siege	-10.3578
via	-10.3579
保	-10.358
▁hora	-10.3584
ć	-10.3588
▁bisa	-10.3589
▁трансляция	-10.3589
च	-10.3589
▁شيله	-10.3591
味	-10.3593
▁fest	-10.3595
▁cc	-10.3596
▁sch	-10.3598
变	-10.3599
▁juin	-10.3604
▁trang	-10.3604
thi	-10.3604
▁berlin	-10.3609
59	-10.3613
ey	-10.3615
fps	-10.3616
▁standoff	-10.3616
lari	-10.3619
▁cal	-10.3621
▁انت	-10.3624
▁그	-10.3625
尔	-10.3626
▁中国	-10.363
▁mat	-10.3633
ил	-10.3634
▁zo	-10.3636
▁control	-10.3637
▁monte	-10.3639
▁fuck	-10.3641
巴	-10.3643
يت	-10.3644
▁п	-10.3644
▁2:	-10.3647
▁curso	-10.3648
▁kota	-10.365
▁bou	-10.3651
ен	-10.3653
tte	-10.3657
/11	-10.3661
dk	-10.3663
▁makan	-10.3663
ciones	-10.3666
wal	-10.3667
スト	-10.3668
▁vui	-10.3669
まで	-10.367
ช	-10.3671
▁nào	-10.3672
▁islam	-10.3672
▁bot	-10.3675
운	-10.3677
▁bob	-10.3677
▁пере	-10.3681
▁او	-10.3683
▁nicht	-10.3683
▁desde	-10.3686
▁nel	-10.3688
▁instrumental	-10.3697
▁직캠	-10.3699
▁chris	-10.3701
▁lima	-10.3705
▁fox	-10.3707
승	-10.3708
▁bas	-10.3709
▁metal	-10.371
▁عمل	-10.3712
▁●	-10.3716
▁anna	-10.3718
▁tor	-10.3719
▁tras	-10.372
啊	-10.3723
達	-10.3726
▁ele	-10.3726
▁know	-10.3729
ない	-10.373
ई	-10.3732
ە	-10.3733
军	-10.3733
▁وي	-10.3737
mgm	-10.3737
▁मई	-10.3744
dance	-10.3749
ura	-10.375
▁chill	-10.3751
vv	-10.3751
▁vom	-10.3752
ati	-10.3752
▁보	-10.3755
▁shot	-10.3758
现场	-10.3759
mix	-10.3764
住	-10.3772
tag	-10.3773
off	-10.3774
▁الك	-10.3775
▁mostrando	-10.3778
▁#10	-10.3781
▁fashion	-10.3782
▁cock	-10.3788
夢	-10.3791
ile	-10.3793
▁track	-10.3795
ам	-10.3797
▁voz	-10.3798
▁global	-10.3801
▁その	-10.3802
▁ч	-10.3803
▁лет	-10.381
▁robot	-10.3812
▁자	-10.3813
물	-10.3815
▁tiếp	-10.3817
▁och	-10.3818
▁ur	-10.3822
传	-10.3823
却	-10.3828
▁россии	-10.3831
▁выпуск	-10.3831
▁وتس	-10.3832
▁mano	-10.3837
救	-10.3845
lang	-10.3848
▁bank	-10.3852
樂	-10.3855
▁peppa	-10.3861
vr	-10.3864
وت	-10.3864
接	-10.3869
ую	-10.3869
369}	-10.3872
ـــ	-10.3874
▁attack	-10.3874
社	-10.3875
▁boom	-10.388
ول	-10.388
恋	-10.3881
내	-10.3883
­	-10.3883
▁cầu	-10.3884
系列	-10.3888
▁shi	-10.3888
刀	-10.3892
▁nước	-10.3893
▁ك	-10.3894
▁spider	-10.3894
심	-10.3898
油	-10.3902
▁pink	-10.3902
▁women	-10.3907
▁sd	-10.391
▁great	-10.3916
セ	-10.3916
▁chile	-10.3919
▁rico	-10.3921
▁مش	-10.3924
61	-10.3924
▁zombie	-10.3926
▁januari	-10.3929
▁era	-10.3932
▁года	-10.3936
▁dvd	-10.3937
▁kr	-10.394
▁under	-10.3947
▁yadav	-10.3947
商	-10.3948
▁double	-10.3948
毛	-10.3949
▁xuân	-10.3949
▁mercedes	-10.395
▁snow	-10.3953
nas	-10.3955
world	-10.3956
ral	-10.3959
ço	-10.3964
▁creed	-10.3965
▁terra	-10.3965
▁korea	-10.3965
▁д	-10.3966
gp	-10.3966
랑	-10.3968
gb	-10.3969
▁smart	-10.397
彩	-10.3973
してみた	-10.3974
デ	-10.3974
▁đường	-10.3975
관	-10.3976
ala	-10.3982
▁arma	-10.3983
▁gente	-10.3988
pal	-10.3992
時間	-10.3995
▁fantasy	-10.3997
ale	-10.3997
▁mt	-10.3998
衣	-10.3998
▁год	-10.3999
▁интро	-10.4001
带	-10.4002
gas	-10.4009
ova	-10.401
met	-10.4011
▁spring	-10.4012
เ	-10.4019
港	-10.4021
bus	-10.4021
जी	-10.4022
▁combat	-10.4022
▁mare	-10.4022
表演	-10.4024
مان	-10.4034
حالات	-10.4035
▁luz	-10.404
▁noche	-10.404
最新	-10.4046
—	-10.4046
▁т	-10.4048
▁pet	-10.405
66	-10.4054
ies	-10.4056
▁photo	-10.4058
▁xa	-10.4059
▁logo	-10.4059
▁mel	-10.4062
▁morning	-10.4062
▁tro	-10.4062
▁nữ	-10.4066
▁รีวิว	-10.4068
루	-10.4071
mak	-10.4072
軍	-10.4072
▁conta	-10.4073
夫	-10.4074
pas	-10.4076
ги	-10.4084
789}	-10.4087
eta	-10.4088
▁daily	-10.4093
▁3.	-10.4093
▁조	-10.4094
са	-10.4094
▁malam	-10.41
精	-10.4102
▁mart	-10.4104
64	-10.4109
▁sr	-10.4111
▁river	-10.4111
▁zi	-10.4118
tz	-10.4121
mit	-10.4122
▁drama	-10.4123
▁public	-10.4124
▁साथ	-10.4126
tech	-10.4126
▁prof	-10.4134
▁بصوت	-10.4135
▁mark	-10.4137
린	-10.4139
▁volta	-10.4139
ere	-10.414
song	-10.4142
▁teste	-10.4143
▁cool	-10.4153
防	-10.4154
▁tek	-10.4155
乐	-10.416
甲	-10.4163
▁gas	-10.4164
活	-10.4169
▁lal	-10.4171
2010	-10.4171
▁sonic	-10.4173
▁antonio	-10.4174
2671	-10.4177
▁hati	-10.4178
tie	-10.4179
足	-10.4186
tura	-10.4186
▁trẻ	-10.4186
fest	-10.419
▁ngọc	-10.4193
▁gegen	-10.4194
歌曲	-10.4195
酒	-10.4197
▁गया	-10.4197
▁스	-10.4197
▁李	-10.4198
▁प	-10.4203
모텔출장	-10.421
▁::	-10.4214
▁noob	-10.4214
▁heroes	-10.4216
송	-10.4217
ane	-10.4218
進	-10.4221
▁marco	-10.4222
stra	-10.4227
▁ff	-10.4228
▁dis	-10.4233
▁jump	-10.4235
▁baile	-10.4236
▁اغاني	-10.4236
▁niños	-10.4238
动	-10.4239
ট	-10.424
die	-10.4242
래	-10.4243
▁gabriel	-10.4246
ディ	-10.4246
▁neue	-10.4251
ph	-10.4253
▁kay	-10.4254
雅	-10.4255
▁code	-10.4256
英雄	-10.4257
▁عليه	-10.4258
ò	-10.426
▁lite	-10.4262
▁block	-10.4266
▁need	-10.4267
方法	-10.427
▁#9	-10.427
▁nay	-10.4278
▁descargar	-10.4279
新聞	-10.4289
hen	-10.4289
尾	-10.429
▁alan	-10.4296
▁شي	-10.4299
▁pai	-10.4299
少	-10.4299
▁cod	-10.43
نه	-10.4301
탄	-10.4302
▁صور	-10.4303
sar	-10.4307
▁maret	-10.4308
▁farm	-10.4312
▁(1)	-10.4313
그	-10.4316
온	-10.4316
▁무	-10.4319
▁champions	-10.4323
▁fala	-10.4324
▁south	-10.4327
▁head	-10.4329
▁thailand	-10.433
▁golf	-10.4332
▁wins	-10.4335
급	-10.434
じ	-10.4341
▁hal	-10.4341
▁cartoon	-10.4344
▁zone	-10.4347
▁حزين	-10.4351
▁classic	-10.4352
kal	-10.4355
▁बा	-10.4355
▁الشاعر	-10.4359
▁trio	-10.4362
▁gal	-10.4363
練習	-10.4365
계	-10.4367
▁bigo	-10.4368
制	-10.4369
▁حسن	-10.4371
▁premier	-10.4372
▁banget	-10.4372
ora	-10.4376
▁ghost	-10.438
sam	-10.4385
ona	-10.439
狗	-10.439
57	-10.4391
ろ	-10.4391
ico	-10.4392
clip	-10.4393
▁thái	-10.4398
▁victoria	-10.4411
▁america	-10.4416
cat	-10.4417
魚	-10.4418
▁jazz	-10.4423
▁إلى	-10.4424
vn	-10.4425
set	-10.4425
照	-10.4426
▁în	-10.4426
▁ark	-10.4433
ate	-10.4434
lon	-10.4437
▁chapter	-10.4439
▁трейлер	-10.4444
紅	-10.4445
如	-10.4448
chan	-10.445
.4	-10.4454
hit	-10.4455
49	-10.4455
▁ग	-10.4458
▁storm	-10.446
้	-10.4462
▁episódio	-10.4465
জ	-10.4467
▁id	-10.4468
吉	-10.4472
草	-10.4473
▁assassin	-10.4474
病	-10.4475
দ	-10.4477
▁bộ	-10.4478
級	-10.4479
▁into	-10.448
ワ	-10.4482
▁halloween	-10.4484
▁nouveau	-10.4486
ि	-10.4486
▁york	-10.4486
▁vou	-10.4487
▁lên	-10.4489
tha	-10.449
sion	-10.4492
沙	-10.4499
兵	-10.4502
▁toys	-10.4505
▁esse	-10.4507
连	-10.4507
▁strike	-10.4507
▁info	-10.4508
两	-10.451
ле	-10.4513
▁ابن	-10.4517
双	-10.4519
▁carro	-10.452
sun	-10.4523
▁مقطع	-10.4524
▁र	-10.4527
ض	-10.4529
▁(2019)	-10.453
lgt	-10.4533
ía	-10.4534
▁2006	-10.454
画	-10.454
ish	-10.4542
▁johnny	-10.4543
語	-10.4543
单	-10.4544
ст	-10.4548
▁dash	-10.455
電	-10.4553
▁barbie	-10.4553
▁vào	-10.4553
▁drum	-10.4555
▁حسين	-10.4557
失	-10.4558
▁quando	-10.4559
▁này	-10.456
鱼	-10.4563
▁bali	-10.4566
종	-10.4568
ят	-10.4572
.6	-10.4572
雷	-10.4574
ти	-10.4576
you	-10.4577
raj	-10.4579
板	-10.4588
▁장	-10.4593
▁#01	-10.4596
นี้	-10.4597
sia	-10.4603
▁ही	-10.4603
▁fo	-10.4605
▁american	-10.4607
▁abc	-10.4607
tti	-10.4608
▁gr	-10.4609
건마	-10.4611
▁esto	-10.4612
ende	-10.4613
▁tere	-10.4617
4)	-10.4619
河	-10.4622
更	-10.4624
▁amateur	-10.4631
▁nunca	-10.4637
▁jose	-10.4637
▁구	-10.464
nis	-10.4641
ux	-10.4644
▁nhi	-10.4644
♂	-10.4645
gal	-10.4646
aa	-10.4646
▁modern	-10.4648
▁شو	-10.4653
▁هي	-10.4654
▁tout	-10.4655
ette	-10.466
▁arte	-10.466
ых	-10.4661
院	-10.4662
▁श्री	-10.4663
lama	-10.4664
▁mom	-10.4666
我的	-10.4667
▁bat	-10.467
才	-10.467
ё	-10.4672
dra	-10.4673
rap	-10.4674
▁파	-10.4678
遊	-10.4679
▁sm	-10.4681
▁первый	-10.4682
né	-10.469
ения	-10.4693
▁قلبي	-10.4695
▁pada	-10.4695
取	-10.4697
रे	-10.4697
37	-10.47
▁gala	-10.4702
kt	-10.4705
管	-10.4706
اق	-10.4706
▁하	-10.4706
▁tau	-10.4708
/10	-10.471
▁pot	-10.4712
ば	-10.4715
65	-10.4716
▁xxx	-10.4719
▁français	-10.4723
▁ny	-10.4724
ente	-10.4724
▁hum	-10.4726
창	-10.4728
▁round	-10.4729
▁dublado	-10.4729
ير	-10.473
kat	-10.4732
var	-10.4735
话	-10.474
ë	-10.4743
▁노	-10.4744
ü	-10.4745
▁marvel	-10.4747
穿	-10.4748
yt	-10.4749
▁서울	-10.475
ゆっくり実況	-10.475
▁performance	-10.4751
gy	-10.4754
2)	-10.4756
▁मा	-10.4757
▁تصميم	-10.4758
▁cuộc	-10.4764
lyrics	-10.4767
ğ	-10.4768
▁كاملة	-10.4769
bang	-10.477
▁nga	-10.4772
▁tum	-10.4774
음	-10.4777
▁های	-10.4779
▁sv	-10.478
▁38	-10.4781
▁barcelona	-10.4782
▁tur	-10.4784
▁الفيديو	-10.4784
gta	-10.4795
▁آ	-10.4795
▁tg	-10.4797
นา	-10.4801
▁toyota	-10.4806
band	-10.4807
▁natal	-10.4808
하기	-10.4809
▁vita	-10.481
▁عيد	-10.4811
▁business	-10.4816
ль	-10.4816
▁ray	-10.4816
▁।।	-10.4817
super	-10.4822
란	-10.4823
(4)	-10.4827
▁thương	-10.4827
▁key	-10.4829
▁international	-10.4834
▁place	-10.4834
▁türkçe	-10.4834
часть	-10.4836
▁lets	-10.4836
▁kita	-10.484
▁bằng	-10.4843
▁व	-10.4843
>	-10.4846
▁cf	-10.4849
▁hội	-10.4851
ais	-10.4854
cut	-10.4855
▁любовь	-10.4858
▁natural	-10.4858
付	-10.4859
▁door	-10.486
▁cer	-10.4861
▁شعر	-10.4864
ón	-10.4864
▁ه	-10.4866
▁descrição	-10.4866
▁прямая	-10.487
▁bed	-10.4871
get	-10.4874
▁mk	-10.4878
▁nha	-10.4878
母	-10.4885
▁해	-10.4887
▁văn	-10.4887
今	-10.4891
▁linh	-10.4895
▁kat	-10.4895
思	-10.4897
▁ss	-10.4898
방송	-10.4902
pr	-10.4904
▁friend	-10.4905
▁thiên	-10.4906
back	-10.4907
▁आज	-10.4909
难	-10.491
▁kho	-10.4912
95	-10.4913
▁eine	-10.4914
▁중	-10.4916
ele	-10.4918
館	-10.4919
▁thời	-10.4919
迷	-10.4923
▁guy	-10.4925
▁تحدي	-10.4926
华	-10.4927
▁system	-10.4928
●	-10.4929
▁٢٠١٨	-10.493
▁कैसे	-10.4933
rah	-10.4934
▁ตอน	-10.4936
▁vale	-10.4936
집	-10.4937
茶	-10.4943
ать	-10.4944
km	-10.4945
pv	-10.4946
▁peter	-10.4948
وم	-10.4951
▁अप्रैल	-10.4954
▁golden	-10.4957
ও	-10.4958
松	-10.4964
▁tâm	-10.4965
福	-10.4971
",	-10.4972
pat	-10.4972
▁pussy	-10.4972
字	-10.4973
หน้า	-10.4974
original	-10.4978
▁را	-10.4979
▁joão	-10.4979
park	-10.4981
iro	-10.4982
▁beta	-10.4982
▁alma	-10.4983
ness	-10.4983
82	-10.4985
▁domingo	-10.4988
▁welt	-10.4989
tica	-10.499
▁micro	-10.4993
台灣	-10.4995
▁الب	-10.4996
จาก	-10.4996
▁น้อง	-10.4997
十	-10.4997
▁गाना	-10.5001
步	-10.5005
▁sports	-10.5006
▁อ	-10.5007
▁hello	-10.501
良	-10.501
少女	-10.501
▁esp	-10.5011
øs	-10.5012
▁report	-10.5013
nk	-10.5013
.5	-10.5015
lİ	-10.5018
▁سي	-10.502
▁second	-10.5025
▁hành	-10.5026
air	-10.5027
bl	-10.5027
solo	-10.5027
▁learn	-10.5034
▁mim	-10.5038
♀	-10.504
และ	-10.5041
▁tema	-10.5044
▁ronaldo	-10.5045
▁singer	-10.5049
案	-10.5057
▁harry	-10.5057
▁ø	-10.5059
▁การ	-10.5065
▁lui	-10.5067
イン	-10.5069
▁sony	-10.5072
체	-10.5072
▁guide	-10.5075
收	-10.5076
▁ça	-10.5076
ob	-10.508
▁nghe	-10.5082
受	-10.5084
节	-10.5085
▁lang	-10.5085
▁contre	-10.5089
5180	-10.509
mod	-10.5092
__	-10.5096
ary	-10.51
让	-10.51
▁অ	-10.5102
bol	-10.5103
ding	-10.5104
▁bem	-10.5105
▁screen	-10.5108
▁simple	-10.5111
▁ios	-10.5112
▁here	-10.5113
改	-10.5114
#3	-10.5116
でも	-10.5129
ring	-10.5132
ティ	-10.5132
เล่น	-10.5134
려	-10.5135
解说	-10.5136
▁sơn	-10.5136
best	-10.5148
▁cantik	-10.5148
州	-10.5155
求	-10.5155
▁shadow	-10.5157
ud	-10.5164
▁pie	-10.5164
官	-10.5165
▁ride	-10.5166
▁next	-10.5166
▁三	-10.5166
▁silva	-10.5173
▁ras	-10.5178
引	-10.5182
8135{	-10.5182
)(	-10.5184
▁desa	-10.5185
▁çok	-10.5189
▁theme	-10.5195
▁đ	-10.5196
6969}	-10.5197
tó	-10.5199
▁भजन	-10.5204
▁fail	-10.5204
如何	-10.5204
配	-10.5206
:00	-10.5207
▁padre	-10.521
▁cafe	-10.5214
▁yamaha	-10.5214
▁نور	-10.5216
ance	-10.5217
или	-10.5226
iq	-10.5227
bor	-10.523
▁ale	-10.5233
600	-10.5238
▁paling	-10.524
▁deep	-10.5241
गा	-10.5245
▁uk	-10.5245
sten	-10.5246
▁中	-10.5248
yy	-10.5248
▁sei	-10.5249
▁hell	-10.5252
idad	-10.5252
黄	-10.5253
▁بو	-10.5254
▁sat	-10.5256
.8	-10.5256
九	-10.5256
博	-10.5258
對	-10.5258
半	-10.5258
排	-10.5259
▁hồ	-10.5261
bis	-10.5269
า	-10.5269
▁blonde	-10.527
▁cross	-10.5276
▁wall	-10.5277
-4	-10.5279
sur	-10.5281
👌	-10.5281
▁vamos	-10.5286
ard	-10.5286
▁épisode	-10.5288
▁battlefield	-10.529
tis	-10.529
▁thủ	-10.5291
▁agua	-10.5292
▁kha	-10.5296
▁try	-10.5297
カー	-10.5299
▁femme	-10.5302
▁đá	-10.5303
▁ytn	-10.5304
ins	-10.5306
▁messi	-10.5308
▁سر	-10.5309
▁ре	-10.5318
男子	-10.5321
▁brand	-10.5322
-10	-10.5323
▁2020	-10.5325
報	-10.5332
▁fly	-10.5333
รถ	-10.5333
▁paso	-10.5333
øx	-10.5334
▁37	-10.5341
虎	-10.5342
oc	-10.5343
▁vf	-10.5346
▁prod	-10.5346
곡	-10.5346
ود	-10.5346
警	-10.535
ua	-10.5357
gg	-10.5359
▁fort	-10.536
▁مقاطع	-10.5362
번	-10.5364
▁رو	-10.5366
▁ш	-10.5372
ボ	-10.5391
ż	-10.5391
▁roll	-10.5394
殺	-10.5395
▁الاول	-10.5395
फ	-10.5397
▁超	-10.5397
▁bor	-10.5399
▁خ	-10.5402
▁62	-10.5403
▁ضد	-10.5404
▁ф	-10.5404
▁супер	-10.5407
せ	-10.5409
판	-10.5411
▁الإ	-10.5413
▁أجمل	-10.5417
يم	-10.5417
▁woman	-10.5417
▁؟	-10.5418
座	-10.5418
▁lá	-10.5419
▁quest	-10.542
▁session	-10.5423
ola	-10.5425
▁sono	-10.5428
ris	-10.5429
ise	-10.5429
vf	-10.543
▁homem	-10.5431
bgm	-10.5431
▁km	-10.5432
54	-10.5436
映像	-10.5436
▁মা	-10.5437
云	-10.5437
▁uno	-10.5438
লে	-10.5439
▁thomas	-10.544
จะ	-10.5442
ذ	-10.5444
bt	-10.5444
▁fans	-10.5445
▁(19	-10.5445
▁мир	-10.5447
▁الح	-10.5449
▁paz	-10.5452
▁tử	-10.5455
▁jakarta	-10.5459
▁đến	-10.5463
led	-10.5465
ند	-10.5466
lay	-10.5467
ша	-10.5472
萬	-10.5473
▁mala	-10.5474
▁ـ	-10.5475
া	-10.5477
75	-10.5478
▁sor	-10.5479
▁view	-10.5483
▁dc	-10.5483
船	-10.5484
▁keren	-10.5489
跟	-10.5491
به	-10.5491
light	-10.5491
ś	-10.5496
▁extra	-10.5498
use	-10.5499
▁jangan	-10.5499
▁kiss	-10.55
▁piece	-10.55
果	-10.55
▁모	-10.5503
威	-10.5507
sky	-10.5511
पुर	-10.5513
pol	-10.5514
▁evento	-10.5519
살	-10.5521
▁شهر	-10.5522
▁rei	-10.5525
091}	-10.5525
▁hey	-10.5532
▁بت	-10.5534
▁raw	-10.5534
▁мне	-10.5536
▁annonce	-10.5536
ich	-10.5536
▁kinh	-10.5537
▁présentation	-10.5538
▁48	-10.554
深	-10.5543
pad	-10.5543
sing	-10.5544
团	-10.5545
东	-10.5546
像	-10.5549
森	-10.555
tter	-10.5551
▁letra	-10.5554
ib	-10.5554
▁colombia	-10.5556
▁fer	-10.5558
▁ly	-10.556
妹	-10.556
스트	-10.5562
▁39	-10.5563
tive	-10.5564
▁travel	-10.5565
▁some	-10.5566
win	-10.5569
ск	-10.557
運	-10.5572
▁!!!!	-10.5579
▁oro	-10.5585
▁आप	-10.5586
мо	-10.5587
▁قصة	-10.5589
▁ara	-10.5589
وش	-10.559
▁rov	-10.5594
音乐	-10.5601
▁agosto	-10.5601
▁dancing	-10.5602
вер	-10.5604
اك	-10.5605
́	-10.5607
▁children	-10.5607
娘	-10.5609
▁ها	-10.5609
說	-10.5612
▁أحمد	-10.5612
▁fácil	-10.5612
ação	-10.5614
热	-10.5615
电	-10.5616
tto	-10.5617
кой	-10.5618
▁€	-10.5618
▁xinh	-10.5621
科	-10.5621
sc	-10.5622
ะ	-10.5624
owy	-10.5629
▁\	-10.5631
wy	-10.5635
▁ملخص	-10.5641
▁सिंह	-10.5644
▁noite	-10.5644
মা	-10.5645
喜	-10.5645
ном	-10.5653
ست	-10.5661
張	-10.5661
▁ag	-10.5666
玩具	-10.5667
私	-10.5677
교	-10.5679
▁sera	-10.5681
▁inscritos	-10.5681
بي	-10.5682
▁highlight	-10.5682
番	-10.5683
kor	-10.5685
▁venezuela	-10.5687
bit	-10.5691
kai	-10.5695
実況プレイ	-10.5695
▁부산	-10.5696
ère	-10.5698
▁neu	-10.5698
▁✔	-10.57
▁chiến	-10.5702
▁thử	-10.5705
▁الجديد	-10.5706
▁force	-10.5706
気	-10.5708
▁صوت	-10.5708
💜	-10.5712
▁hài	-10.5715
▁vũ	-10.5716
為	-10.5719
اج	-10.572
▁voi	-10.5721
师	-10.5721
▁ph	-10.5724
▁ह	-10.5726
日目	-10.573
▁mah	-10.5732
▁cro	-10.5732
▁center	-10.5734
सा	-10.5735
▁mur	-10.5735
.9	-10.574
▁서	-10.574
port	-10.5741
▁пользователя	-10.5741
▁افضل	-10.5742
▁perfect	-10.5747
▁сделать	-10.5749
助	-10.5749
▁خالد	-10.575
от	-10.575
▁मार्च	-10.575
76	-10.5752
▁sri	-10.5753
▁ก	-10.5754
教程	-10.5755
▁aqui	-10.5755
▁(2018)	-10.5755
lle	-10.5756
干	-10.5758
発	-10.5759
▁bảo	-10.5763
▁very	-10.5764
ue	-10.5764
試	-10.5765
熱	-10.5765
▁md	-10.5768
毒	-10.577
実	-10.5774
š	-10.5776
ici	-10.5776
hr	-10.5778
▁بنات	-10.5779
▁жизнь	-10.5788
ret	-10.579
早	-10.579
▁fotos	-10.5791
감	-10.5795
888}	-10.5797
пи	-10.5798
▁amiga	-10.5799
弾	-10.5805
▁😘	-10.5809
▁suara	-10.5809
▁mundial	-10.5809
▁lý	-10.581
叫	-10.5814
▁cristiano	-10.5815
রে	-10.5815
▁paper	-10.5816
olo	-10.5819
戏	-10.582
▁gà	-10.582
▁brown	-10.5824
▁sniper	-10.5826
▁delle	-10.5826
ал	-10.5827
▁jackson	-10.5827
وه	-10.5828
聖	-10.5829
▁お	-10.5829
▁....	-10.583
lat	-10.5836
▁hoje	-10.5836
▁bruno	-10.5836
💙	-10.5837
▁มา	-10.5843
▁বা	-10.5845
▁детей	-10.5847
▁fit	-10.5848
▁thần	-10.5848
об	-10.5851
室	-10.5853
وب	-10.5854
test	-10.5854
İn	-10.586
▁kor	-10.5861
▁hall	-10.5863
trailer	-10.5865
ier	-10.5865
▁골드카지노	-10.5873
뉴스	-10.5875
▁mùa	-10.5877
▁한국	-10.588
øc	-10.588
▁mẹ	-10.5881
(5)	-10.5882
প	-10.5883
▁motion	-10.5884
▁mulher	-10.5885
▁recipe	-10.5885
날	-10.5886
hot	-10.5887
bot	-10.5891
له	-10.5891
▁lost	-10.5899
파워볼	-10.5901
▁khu	-10.5902
▁кто	-10.5903
▁mg	-10.5904
▁게임	-10.5906
▁lucas	-10.5908
▁mà	-10.5909
ตา	-10.5909
oso	-10.591
▁vídeos	-10.591
1472}	-10.5913
club	-10.5918
表	-10.5919
▁동	-10.5919
▁odc	-10.592
▁material	-10.5924
▁adventure	-10.5925
vos	-10.5925
▁ami	-10.5925
▁help	-10.5927
近	-10.5928
010}	-10.5929
▁tube	-10.593
放送	-10.5933
▁الخ	-10.5934
▁عمر	-10.5934
oğlu	-10.5938
▁rally	-10.5944
▁modi	-10.5944
งาน	-10.5946
بر	-10.5953
▁jour	-10.5954
360	-10.5958
▁güzel	-10.5962
▁так	-10.5964
▁tera	-10.597
▁holi	-10.5971
▁ма	-10.5971
▁fake	-10.5972
▁viva	-10.5977
rock	-10.5978
▁hồng	-10.5978
की	-10.5979
▁massage	-10.598
群	-10.5982
▁apple	-10.5983
▁justin	-10.5984
▁nice	-10.5984
ू	-10.5985
매	-10.5985
▁elite	-10.5987
ым	-10.5987
▁مهرجان	-10.5987
저	-10.5987
▁😎	-10.5989
▁ton	-10.5991
切	-10.5993
▁idol	-10.5993
跑	-10.5995
▁muy	-10.5998
▁diamond	-10.5999
▁mexico	-10.6
▁commercial	-10.6001
▁dança	-10.6002
ori	-10.6003
▁és	-10.6008
▁cantando	-10.6012
uz	-10.6012
冰	-10.6014
og	-10.6015
▁lucky	-10.603
▁sand	-10.603
▁عبدالله	-10.6031
จ	-10.6033
別	-10.6036
▁ज	-10.604
▁ts	-10.6041
量	-10.6042
▁قسمت	-10.6042
▁55	-10.6046
ड़	-10.6046
pm	-10.6046
aria	-10.6048
림	-10.6048
▁;	-10.6049
▁andreas	-10.6049
招	-10.6049
ँ	-10.6052
景	-10.6056
♬	-10.6058
▁sab	-10.6059
▁rush	-10.6059
▁linda	-10.606
▁segunda	-10.606
▁ski	-10.6063
▁dua	-10.6065
▁chicken	-10.6065
▁احلى	-10.6065
▁movies	-10.6074
▁cinema	-10.6074
ай	-10.6076
犬	-10.6077
▁부	-10.6081
▁stand	-10.6081
final	-10.6084
kon	-10.6093
▁service	-10.6094
▁christian	-10.6095
▁па	-10.6097
ギ	-10.6101
▁मोदी	-10.6102
可以	-10.6102
nti	-10.6103
ww	-10.6107
▁jorge	-10.6107
qq	-10.6108
▁cả	-10.6109
sol	-10.6111
▁42	-10.6112
▁gì	-10.6115
▁prze	-10.6115
▁zoo	-10.6115
▁garden	-10.6118
▁porno	-10.6121
sport	-10.6122
▁kya	-10.6123
تر	-10.6125
▁phone	-10.6126
ット	-10.6127
▁fazendo	-10.6128
▁도	-10.6131
lie	-10.6132
▁기	-10.6132
▁44	-10.6132
92	-10.6134
ec	-10.6135
xi	-10.6136
角	-10.6137
เลย	-10.6138
種	-10.6139
2000	-10.6141
▁again	-10.6142
▁vegas	-10.6143
▁poli	-10.6146
▁laura	-10.6147
ец	-10.6148
่	-10.6149
두	-10.6152
nın	-10.6156
▁bak	-10.6156
▁drone	-10.6157
人生	-10.6157
▁jawa	-10.616
▁sy	-10.6161
ney	-10.6164
▁99	-10.6167
ские	-10.6176
후	-10.6177
bon	-10.6177
コン	-10.6177
▁gp	-10.6178
▁turbo	-10.6183
jar	-10.6184
▁presidente	-10.6187
▁qué	-10.6187
▁#11	-10.6188
79	-10.6194
اس	-10.6197
tour	-10.62
▁bol	-10.6213
射	-10.622
▁chef	-10.6222
▁sz	-10.6224
▁cristo	-10.6225
real	-10.6226
llo	-10.6234
▁queen	-10.6234
▁lần	-10.6234
▁mortal	-10.624
▁gang	-10.624
↔	-10.6243
щ	-10.6248
kha	-10.625
통	-10.6251
اي	-10.6258
▁vu	-10.6259
▁diego	-10.6262
ской	-10.6265
학	-10.6266
▁тест	-10.627
▁rocket	-10.627
▁(1	-10.6272
▁história	-10.6279
▁fat	-10.628
78}	-10.6281
िया	-10.6283
▁##	-10.6284
**	-10.6286
▁बि	-10.6287
▁जा	-10.629
▁nord	-10.629
▁новости	-10.6293
▁retour	-10.6293
就是	-10.6295
▁robert	-10.6298
lia	-10.6298
ครับ	-10.6305
▁高	-10.6306
▁blood	-10.6306
義	-10.6308
▁mãe	-10.631
▁राम	-10.631
▁animal	-10.6314
▁dicas	-10.6314
关	-10.6317
▁pol	-10.6321
▁never	-10.6322
▁walk	-10.6322
▁صباح	-10.6323
寺	-10.6324
▁break	-10.6324
▁বি	-10.6326
▁use	-10.6327
及	-10.633
▁crew	-10.633
▁شرح	-10.6332
ダンス	-10.6333
▁mind	-10.6333
▁já	-10.6334
hal	-10.6335
勝	-10.6341
▁trick	-10.6341
▁europa	-10.6342
▁세	-10.6342
الوصف	-10.6343
cn	-10.6345
故事	-10.6345
ره	-10.6346
▁terror	-10.6348
▁giải	-10.6349
▁موبايل	-10.6351
▁dick	-10.6353
ман	-10.6353
iste	-10.6363
▁meus	-10.6365
bin	-10.6366
▁forest	-10.6367
▁cine	-10.6369
恩	-10.637
ique	-10.6374
▁वि	-10.6375
절	-10.638
▁بنت	-10.6381
▁sl	-10.6383
蛋	-10.6383
▁то	-10.6389
الم	-10.6389
▁দেখুন	-10.6389
800	-10.639
ба	-10.6391
ガチャ	-10.6394
ด้วย	-10.6396
▁norte	-10.6397
▁2/2	-10.6398
▁celular	-10.64
مر	-10.6407
ert	-10.641
只	-10.6411
ラン	-10.6411
zel	-10.6416
暴	-10.6418
😭	-10.6419
بة	-10.6421
ゴ	-10.6422
飛	-10.6422
عة	-10.6423
ping	-10.6423
▁giveaway	-10.6423
▁4.	-10.6423
▁amv	-10.6425
▁♫	-10.6428
▁공	-10.6428
cht	-10.6429
dio	-10.6429
あり	-10.6431
🏻	-10.6431
▁dân	-10.6432
▁panda	-10.6433
▁future	-10.6435
▁»	-10.6435
▁august	-10.6436
▁điện	-10.6436
▁kong	-10.6436
▁더	-10.6439
▁lake	-10.6442
▁غير	-10.6444
출장만남	-10.6445
别	-10.6447
▁يوسف	-10.6447
rei	-10.6448
ω	-10.645
ões	-10.6451
dim	-10.6451
ٍ	-10.6453
house	-10.6456
덕	-10.6457
▁شباب	-10.646
▁nick	-10.646
翻	-10.6463
osa	-10.6464
▁joe	-10.6464
▁vàng	-10.6464
▁japanese	-10.6465
بل	-10.6466
😉	-10.6469
▁일	-10.6469
eb	-10.6469
▁chinese	-10.6474
▁belle	-10.6474
▁azul	-10.6475
クラス	-10.6476
hl	-10.6478
富	-10.6478
▁dias	-10.6481
假	-10.6485
tak	-10.6486
non	-10.6496
▁completa	-10.6498
▁escape	-10.6504
▁рас	-10.6505
▁olha	-10.6506
▁stock	-10.6507
lık	-10.6507
น้อง	-10.6512
▁والله	-10.6513
より	-10.6513
▁ros	-10.6514
ケ	-10.6516
▁बार	-10.6517
▁talent	-10.6518
▁state	-10.6519
▁3:	-10.652
▁wolf	-10.6521
▁meri	-10.6525
▁porto	-10.6526
ৰ	-10.6527
wer	-10.6528
ина	-10.6528
med	-10.6528
ความ	-10.6532
▁push	-10.6534
ده	-10.6538
▁canlı	-10.6539
▁fri	-10.6539
▁five	-10.6543
▁cosas	-10.6547
▁2562	-10.6548
啦	-10.655
▁ring	-10.6552
ु	-10.6552
iii	-10.6553
▁دو	-10.6554
bri	-10.6554
健	-10.6554
wood	-10.6555
▁college	-10.6555
▁mana	-10.6556
▁어	-10.6556
▁강	-10.6556
ous	-10.6559
▁meine	-10.6561
▁chỉ	-10.6561
لك	-10.6564
▁omg	-10.6564
▁edição	-10.6568
▁kom	-10.6568
まとめ	-10.657
ै	-10.657
▁đánh	-10.657
ive	-10.6572
pra	-10.6573
▁تصميمي	-10.6574
▁bit	-10.6579
cd	-10.6581
▁side	-10.6583
▁tp	-10.6588
经典	-10.6588
听	-10.6588
游	-10.6588
竟	-10.6589
聲	-10.659
▁pizza	-10.6593
ฟ	-10.6594
▁حفل	-10.6595
/04/	-10.6597
▁así	-10.6598
▁كلمات	-10.6598
▁şubat	-10.6599
▁fre	-10.66
▁expo	-10.6607
43	-10.6609
▁ক	-10.6611
▁porta	-10.6612
▁1.6	-10.6613
這	-10.6613
log	-10.6613
vel	-10.6614
만족도	-10.6615
▁overwatch	-10.6615
▁september	-10.6617
▁theft	-10.6618
vu	-10.6619
▁فيلم	-10.6619
▁asian	-10.662
▁tap	-10.662
▁一	-10.6621
▁char	-10.6626
gui	-10.6627
▁tidak	-10.6627
▁после	-10.6627
▁حقوق	-10.6632
▁„	-10.6632
达	-10.6632
cas	-10.6633
▁fut	-10.6637
▁जो	-10.6639
▁lg	-10.6639
▁रे	-10.6641
橋	-10.6644
▁zombies	-10.6644
登	-10.6646
복	-10.6646
降	-10.6648
idade	-10.665
وز	-10.6651
اه	-10.6652
▁kra	-10.6653
▁dunia	-10.6656
버	-10.6657
مة	-10.6659
▁pass	-10.6662
pk	-10.6663
歳	-10.6664
tim	-10.6665
▁cai	-10.6667
zia	-10.6668
▁goku	-10.6668
▁pasa	-10.6668
ea	-10.6671
▁pero	-10.6673
▁più	-10.6674
.12.	-10.6674
▁prime	-10.6681
!"	-10.6682
▁low	-10.6683
▁sonido	-10.6684
▁fitness	-10.6684
▁प्र	-10.6686
sse	-10.6686
ло	-10.6688
tico	-10.6692
▁vem	-10.6693
▁사랑	-10.6694
音樂	-10.67
▁dương	-10.67
▁250	-10.6701
ios	-10.6701
ны	-10.6702
▁حزينة	-10.6702
▁bros	-10.6704
魂	-10.6705
▁تو	-10.6707
▁general	-10.6707
▁75	-10.671
เพลง	-10.671
▁sing	-10.6712
朝	-10.6712
▁nhau	-10.6712
▁सु	-10.6713
with	-10.6714
▁الس	-10.6718
▁switch	-10.6718
▁İlk	-10.6723
long	-10.6725
لو	-10.6727
ヒ	-10.6727
广场舞	-10.6728
▁fur	-10.6729
▁año	-10.6732
karaoke	-10.6734
▁subscribe	-10.6734
▁sind	-10.6734
▁ले	-10.6737
▁verde	-10.6738
▁bre	-10.6738
▁masa	-10.6739
▁gua	-10.6742
run	-10.6742
守	-10.6744
▁dom	-10.6745
▁де	-10.6749
투	-10.6751
▁ibu	-10.6751
до	-10.6754
มาก	-10.6755
▁roman	-10.6757
▁王	-10.6758
▁محمود	-10.6758
53	-10.6759
^^	-10.676
black	-10.6763
佳	-10.6766
▁ez	-10.6766
्	-10.6768
傳	-10.6769
治	-10.6772
▁navidad	-10.6772
▁yoga	-10.6779
▁حلقة	-10.6779
sti	-10.6781
ري	-10.6781
▁tech	-10.6783
วัน	-10.6783
▁giang	-10.6785
區	-10.6786
lek	-10.6791
▁slow	-10.6791
ख	-10.6791
pin	-10.6793
lim	-10.6794
▁400	-10.6795
master	-10.6796
▁sud	-10.6798
怒	-10.6801
oni	-10.6805
▁bala	-10.6808
▁concurso	-10.6808
adas	-10.681
øp	-10.6812
粉	-10.6813
▁nh	-10.6814
cv	-10.6816
윤	-10.6818
▁porque	-10.6821
tec	-10.6823
▁shin	-10.6829
罗	-10.6831
▁41	-10.6831
劇	-10.6832
买	-10.6836
까지	-10.6836
難	-10.6837
團	-10.6838
던	-10.6839
सी	-10.6844
短	-10.6846
▁тебя	-10.6847
tiva	-10.6847
▁ر	-10.6847
hat	-10.6848
▁tuổi	-10.6848
嘉	-10.6849
يف	-10.6849
▁nightcore	-10.6849
▁kart	-10.685
▁tự	-10.685
▁juillet	-10.6851
amento	-10.6854
▁salon	-10.6861
▁saya	-10.6862
▁kecil	-10.6863
مه	-10.6863
oli	-10.6864
ks	-10.6865
▁ani	-10.6865
秋	-10.6866
▁eco	-10.6868
টি	-10.687
旅	-10.6873
ee	-10.6873
▁zocken	-10.6875
▁tây	-10.6878
▁sho	-10.6879
iv	-10.6879
ima	-10.688
完	-10.688
1)	-10.6881
ves	-10.6881
▁campo	-10.6882
▁tx	-10.6882
mg	-10.6884
bad	-10.6884
ก็	-10.6886
▁türk	-10.6888
プロ	-10.6891
▁просто	-10.6893
book	-10.6897
斗	-10.6897
▁gil	-10.6902
▁phương	-10.6903
250	-10.6904
▁pha	-10.6905
mus	-10.6907
mr	-10.6909
塔	-10.691
▁united	-10.6913
sto	-10.6914
워	-10.6914
▁हुआ	-10.6915
▁hombre	-10.6917
▁최	-10.6918
钱	-10.6919
700	-10.6923
ء	-10.6924
▁fue	-10.6927
▁wi	-10.6928
▁blues	-10.6929
▁sich	-10.6932
▁vin	-10.6932
▁complet	-10.6934
妻	-10.6936
등	-10.6939
▁market	-10.6942
97	-10.6944
!」	-10.6945
▁fucked	-10.6947
كر	-10.6948
奈	-10.6949
▁must	-10.6951
▁lê	-10.6952
▁indo	-10.6957
94	-10.6961
권	-10.6964
▁दिल	-10.6964
寶	-10.6966
ème	-10.6968
▁dam	-10.6969
▁bun	-10.697
▁pré	-10.6973
▁chuyện	-10.6975
▁caso	-10.698
希	-10.6985
▁name	-10.6986
▁cb	-10.6987
▁internacional	-10.6989
▁kab	-10.6989
mes	-10.6993
▁ভিডিও	-10.6994
▁tinh	-10.7003
怪	-10.7004
▁roz	-10.7005
▁jin	-10.7006
gon	-10.7006
界	-10.7009
▁express	-10.7009
▁#12	-10.7011
▁quick	-10.7012
▁thể	-10.7014
▁als	-10.7016
款	-10.7018
▁male	-10.7019
然	-10.702
qu	-10.7021
▁central	-10.7022
▁tapi	-10.7022
▁mike	-10.7023
亚	-10.7024
fun	-10.7028
tus	-10.7028
▁ব	-10.7031
군	-10.7031
▁hill	-10.7033
63	-10.7034
▁division	-10.7034
720	-10.7035
▁station	-10.7037
▁pé	-10.7037
eau	-10.7039
久	-10.704
▁tiempo	-10.7042
▁forma	-10.7043
환	-10.7045
▁اذا	-10.7049
nan	-10.7052
▁poder	-10.7052
▁single	-10.7053
▁teri	-10.7056
豪	-10.7056
▁tres	-10.7056
▁43	-10.7058
▁त	-10.7058
▁sto	-10.7063
▁nr	-10.7064
▁hospital	-10.7066
▁bb	-10.7068
ौ	-10.707
▁globo	-10.7071
▁asi	-10.7071
▁gak	-10.7073
▁인	-10.7075
sem	-10.7079
▁iron	-10.7082
▁gato	-10.7084
से	-10.7086
जा	-10.7087
根	-10.7091
▁trực	-10.7092
▁64	-10.7094
▁manuel	-10.7094
▁pad	-10.7095
লি	-10.7096
how	-10.7096
▁nội	-10.7096
nar	-10.7098
▁ص	-10.71
什么	-10.71
-2018	-10.71
dik	-10.7101
ela	-10.7101
bet	-10.7101
教學	-10.7106
▁2005	-10.7107
▁bri	-10.711
▁원	-10.7111
▁ranked	-10.7111
▁malaysia	-10.7112
दा	-10.7113
▁jual	-10.7113
🌹	-10.7114
▁bill	-10.7115
lam	-10.7115
▁quiero	-10.7116
-7	-10.7116
▁61	-10.7119
▁oyun	-10.7122
▁mara	-10.7122
ลูก	-10.7123
那	-10.7125
▁очень	-10.7133
ture	-10.7135
owa	-10.7135
▁،	-10.7136
ど	-10.7136
▁fix	-10.7141
ité	-10.7142
ре	-10.7143
▁village	-10.7144
ют	-10.7145
記	-10.7146
वर	-10.7146
اح	-10.7146
!(	-10.715
ды	-10.715
牌	-10.7151
ice	-10.7151
▁town	-10.7151
▁till	-10.7152
па	-10.7152
バー	-10.7153
▁jornal	-10.7154
素	-10.7156
▁quang	-10.7159
â	-10.716
ぶ	-10.7161
52}	-10.7164
😁	-10.7165
▁vì	-10.7167
▁change	-10.7168
▁أبو	-10.717
枪	-10.7173
iu	-10.7175
81	-10.7175
▁türkiye	-10.7176
임	-10.7177
ро	-10.7178
致	-10.7178
far	-10.7179
東京	-10.718
▁dub	-10.7181
政	-10.7185
见	-10.7188
制作	-10.7189
津	-10.7189
雲	-10.7191
▁đời	-10.7192
▁الق	-10.7194
백	-10.7196
▁cre	-10.7198
▁shah	-10.7199
▁horror	-10.72
▁ela	-10.72
ful	-10.7202
길	-10.7203
▁quan	-10.7203
▁madre	-10.7203
▁hải	-10.7204
▁हिट	-10.7205
▁ip	-10.7207
▁pentru	-10.7209
kk	-10.7212
▁cars	-10.7214
▁antes	-10.7215
▁tiền	-10.7218
语	-10.7219
▁tanpa	-10.7221
ella	-10.7222
▁mere	-10.7223
▁alto	-10.7225
▁jai	-10.7227
▁İstanbul	-10.7229
▁boa	-10.723
基	-10.7231
นะ	-10.7231
▁squishy	-10.7232
▁tus	-10.7233
rea	-10.7234
▁boca	-10.7235
rr	-10.7235
網	-10.7239
▁tuto	-10.7242
▁nem	-10.7243
▁kevin	-10.7244
▁anne	-10.7245
▁ส	-10.7247
而	-10.7248
冷	-10.7248
101	-10.725
แบบ	-10.725
91	-10.7255
▁abdul	-10.7256
▁reto	-10.7258
▁sf	-10.726
▁kingdom	-10.7265
▁phong	-10.7266
▁wind	-10.7266
▁flor	-10.7268
دا	-10.7268
▁ciudad	-10.7272
anti	-10.7274
▁için	-10.728
▁💖	-10.728
▁london	-10.7283
▁batman	-10.7283
▁دار	-10.7284
▁47	-10.7285
▁wat	-10.7286
▁human	-10.7287
may	-10.7288
▁첫	-10.7294
▁개	-10.7295
▁quả	-10.7295
lina	-10.7296
▁россия	-10.7298
▁chap	-10.7298
난	-10.7301
▁hợp	-10.7301
cor	-10.7305
▁mặt	-10.7305
兰	-10.7306
pie	-10.7307
▁tài	-10.7307
side	-10.7312
▁‫	-10.7313
87	-10.7316
eiro	-10.7318
rp	-10.7319
▁joy	-10.7325
▁earth	-10.7325
▁ikan	-10.7327
▁bomb	-10.7328
øg	-10.7328
link	-10.733
▁ace	-10.7331
lt	-10.7331
▁พฤษภาคม	-10.7333
▁tren	-10.7335
너	-10.734
ž	-10.734
▁drag	-10.7342
eira	-10.7345
▁gara	-10.7346
▁youtuber	-10.7346
zar	-10.7347
▁cidade	-10.7348
湖	-10.735
✌	-10.735
▁58	-10.7352
nal	-10.7353
apex	-10.7354
氣	-10.7354
걸	-10.7354
技	-10.7356
激	-10.7357
▁للم	-10.7359
▁visita	-10.7362
är	-10.7364
ру	-10.7365
史	-10.7365
약	-10.7366
▁pablo	-10.7367
😢	-10.7374
▁만들기	-10.7374
▁vas	-10.7376
▁класс	-10.7376
tivo	-10.7379
視	-10.7379
號	-10.738
▁ए	-10.7382
би	-10.7384
▁touch	-10.7386
말	-10.7387
tia	-10.7388
▁التي	-10.7389
丸	-10.7394
▁tokyo	-10.7394
illa	-10.7395
▁draw	-10.74
▁ко	-10.7402
▁mary	-10.7403
وان	-10.7405
▁meet	-10.7406
gio	-10.7406
嫁	-10.7407
▁александр	-10.741
▁want	-10.741
플	-10.7413
auto	-10.7414
▁romantic	-10.7414
▁gift	-10.7419
▁parti	-10.7422
▁pyar	-10.7426
▁glitch	-10.7427
▁gro	-10.7428
▁petite	-10.7429
黒	-10.743
▁rom	-10.7432
▁fernando	-10.7432
送料無料	-10.7434
▁да	-10.7435
▁:3	-10.7437
/1	-10.7439
歲	-10.7442
cre	-10.7444
org	-10.7447
ِّ	-10.7447
▁صلاح	-10.7447
▁raid	-10.7448
▁than	-10.7449
▁leon	-10.7449
還	-10.745
狼	-10.7453
▁viên	-10.7453
▁دي	-10.7454
香港	-10.7456
▁rat	-10.7456
▁welcome	-10.7457
▁francisco	-10.7457
ан	-10.7458
▁passo	-10.746
lis	-10.7462
sie	-10.7462
歌ってみた	-10.7464
教学	-10.7466
nen	-10.7466
де	-10.7466
さんの	-10.7468
▁jag	-10.7469
▁cảnh	-10.747
usa	-10.747
▁nuovo	-10.7472
▁anni	-10.7473
谁	-10.7475
لة	-10.7475
ます	-10.7476
ри	-10.7476
▁تحميل	-10.7481
150	-10.7483
▁presenta	-10.7484
ме	-10.7486
▁português	-10.7486
encia	-10.7486
▁49	-10.7489
若	-10.7489
▁november	-10.7493
▁الأول	-10.7494
iye	-10.7497
▁teatro	-10.75
▁away	-10.7501
ement	-10.7503
pet	-10.7506
!】	-10.7507
▁khúc	-10.7509
▁salsa	-10.751
優	-10.7514
▁vidio	-10.7514
▁pay	-10.7514
lum	-10.7515
мен	-10.7516
▁डांस	-10.7517
▁mid	-10.7518
▁मु	-10.7518
▁जुलाई	-10.7519
गी	-10.7522
▁bhajan	-10.7522
▁💕	-10.7523
-8	-10.7529
건	-10.753
県	-10.7531
尼	-10.7532
▁roberto	-10.7533
▁será	-10.7536
▁bà	-10.7537
イベント	-10.7539
级	-10.7549
질	-10.7552
из	-10.7552
▁vc	-10.7553
▁tony	-10.7555
▁وأ	-10.7556
1080	-10.7557
)【	-10.7557
▁दे	-10.7558
園	-10.756
▁alta	-10.7562
▁кот	-10.7564
girl	-10.7565
히	-10.7566
▁après	-10.7567
▁tal	-10.7571
lp	-10.7573
▁bóng	-10.7575
كي	-10.7575
▁مترجم	-10.7575
▁creative	-10.7577
▁tá	-10.7577
童	-10.7579
底	-10.7581
▁alpha	-10.7582
▁italiano	-10.7585
▁lava	-10.7589
2{	-10.7589
डी	-10.7591
急	-10.7591
▁125	-10.7593
аль	-10.7596
ence	-10.7603
▁الحلقه	-10.7603
لل	-10.7609
▁pp	-10.761
▁date	-10.761
pon	-10.761
▁tô	-10.7611
철	-10.7615
ベ	-10.7617
ック	-10.7618
2]	-10.7619
▁اني	-10.7619
提	-10.7622
간	-10.7623
已	-10.7626
▁years	-10.7626
2009	-10.7629
э	-10.7632
ación	-10.7633
وس	-10.7634
mek	-10.7636
▁кор	-10.7637
▁ط	-10.7641
▁초	-10.7644
▁приколы	-10.7645
mor	-10.7647
▁chim	-10.7648
宇	-10.765
▁talking	-10.7651
书	-10.7656
annonce	-10.766
ade	-10.766
亮	-10.766
變	-10.7662
▁egg	-10.7663
▁pau	-10.7666
这个	-10.7666
nica	-10.7669
▁bl	-10.767
▁contest	-10.7671
uta	-10.7672
▁uni	-10.7672
▁피	-10.7673
▁पा	-10.7673
▁bana	-10.7673
iza	-10.7674
ского	-10.7677
▁guys	-10.7678
▁musique	-10.7679
애	-10.7682
▁escuela	-10.7685
kel	-10.7686
▁السلام	-10.7687
ama	-10.769
▁prince	-10.769
از	-10.769
lak	-10.7691
▁course	-10.7692
sso	-10.7693
86	-10.7695
▁north	-10.7695
app	-10.7695
▁drift	-10.7696
▁qa	-10.7696
ä	-10.7697
দের	-10.7698
ние	-10.7699
▁aur	-10.7702
속	-10.7703
old	-10.7705
‬	-10.7706
▁foot	-10.7707
▁xi	-10.7708
ぎ	-10.771
▁đêm	-10.7715
č	-10.7717
zone	-10.772
▁pri	-10.7727
-19	-10.7728
推	-10.7728
666}	-10.7728
永	-10.7728
▁46	-10.773
øv	-10.773
▁extreme	-10.7733
▁singing	-10.7734
▁soi	-10.7735
▁bomba	-10.7735
▁เมษายน	-10.7737
公園	-10.7739
佛	-10.774
▁mam	-10.7741
公開	-10.7741
洗	-10.7742
▁kai	-10.7742
جي	-10.7744
々	-10.7745
67	-10.7745
▁불	-10.775
bil	-10.7758
head	-10.776
▁portugal	-10.7763
▁bao	-10.7765
eh	-10.7766
como	-10.7767
▁craft	-10.7775
청	-10.7775
搞笑	-10.7775
▁acc	-10.7777
ظ	-10.778
▁сериал	-10.778
▁jokowi	-10.7781
▁cảm	-10.7783
▁للشيخ	-10.7783
少年	-10.7784
▁😂😂😂	-10.7784
dis	-10.7785
dal	-10.7788
▁bebe	-10.779
▁janvier	-10.779
مع	-10.7793
セット	-10.7795
▁rip	-10.7797
乱	-10.7797
▁ste	-10.7798
▁金	-10.7799
調	-10.7801
스타	-10.7803
py	-10.7803
할	-10.7805
bir	-10.7805
fm	-10.7807
▁apk	-10.7807
▁لن	-10.7809
▁pakistan	-10.7809
▁trình	-10.781
▁jet	-10.7811
▁milf	-10.7813
▁napoli	-10.7816
ร์	-10.7819
▁nisan	-10.7821
브	-10.7823
..."	-10.7824
▁família	-10.7826
online	-10.7827
ат	-10.7827
▁blog	-10.7828
gang	-10.783
69{	-10.7832
▁juegos	-10.7833
▁성	-10.7834
▁phi	-10.7837
adi	-10.7838
نة	-10.7842
非	-10.7842
▁(2	-10.7843
源	-10.7843
اف	-10.7844
露	-10.7844
▁jogar	-10.7846
▁planet	-10.7849
▁tân	-10.785
▁واحد	-10.7851
シリーズ	-10.7853
رة	-10.7854
gin	-10.7857
vis	-10.7859
▁age	-10.7862
900	-10.7864
▁ven	-10.7867
lü	-10.787
▁바	-10.787
▁exclusive	-10.787
▁save	-10.787
▁यादव	-10.787
▁chế	-10.7871
豆	-10.7872
▁fish	-10.7872
▁parque	-10.7872
▁morte	-10.7874
كل	-10.7875
▁tel	-10.7879
迪	-10.788
▁marie	-10.788
̣	-10.7885
جر	-10.7886
▁mạnh	-10.7886
▁حبيبي	-10.7888
71	-10.7889
▁연	-10.789
▁torneo	-10.7891
ель	-10.7892
exe	-10.7894
▁mb	-10.7895
달	-10.7896
▁सुपरहिट	-10.7898
데	-10.7901
▁mondo	-10.7901
사랑	-10.7902
▁صالح	-10.7902
樹	-10.7902
▁канал	-10.7907
▁chocolate	-10.7913
▁twice	-10.7914
▁act	-10.7914
新闻	-10.7919
▁#13	-10.792
▁tiên	-10.7921
-2019	-10.7926
▁bf	-10.7926
▁horas	-10.7926
▁ora	-10.7927
▁阿	-10.7927
▁eva	-10.7927
▁😍😍	-10.7929
▁españa	-10.793
親	-10.7932
▁tribute	-10.7935
▁breaking	-10.7937
उ	-10.7937
فر	-10.7938
▁حل	-10.794
lor	-10.7941
bur	-10.7941
▁노래	-10.7942
造	-10.7942
▁marca	-10.7947
▁जरूर	-10.7948
▁enfants	-10.7948
با	-10.7955
▁ست	-10.7956
▁nge	-10.796
▁december	-10.7961
ぞ	-10.7961
アニメ	-10.7963
▁focus	-10.7963
▁muerte	-10.7963
▁أغنية	-10.7964
▁dur	-10.7964
dh	-10.7965
tina	-10.7967
▁veja	-10.7968
▁bull	-10.7969
력	-10.7972
▁dançando	-10.7972
กิน	-10.7972
とは	-10.7973
مي	-10.7973
分享	-10.7976
mine	-10.7977
字幕	-10.7979
痛	-10.798
撞	-10.7981
▁我	-10.7981
美国	-10.7983
▁👍	-10.7983
▁destiny	-10.7983
uni	-10.7984
▁ア	-10.7984
▁عام	-10.7989
亲	-10.799
▁fel	-10.7991
麻	-10.7991
▁lançamento	-10.7991
รา	-10.7993
▁combo	-10.7999
▁officiel	-10.8
왕	-10.8001
▁busca	-10.8002
▁getting	-10.8002
▁ö	-10.8005
兄弟	-10.8005
▁hace	-10.8006
▁candy	-10.8011
考	-10.8011
▁ustadz	-10.8013
fin	-10.8013
र्	-10.8014
.10.	-10.8014
▁এ	-10.8015
목	-10.8017
bc	-10.8017
▁ahmad	-10.8018
沢	-10.802
▁prova	-10.8022
精彩	-10.8022
토토	-10.8023
从	-10.8024
▁😊	-10.8025
stream	-10.8026
ena	-10.8026
▁mehr	-10.8027
▁लाल	-10.8028
يق	-10.8029
▁00	-10.8031
▁ut	-10.8033
▁michel	-10.8039
youtube	-10.804
▁cream	-10.8041
esh	-10.8043
▁nivel	-10.8046
▁crack	-10.8048
成功	-10.8054
▁thông	-10.8055
▁café	-10.8059
▁photoshop	-10.8059
▁kanal	-10.806
程	-10.8062
▁behind	-10.8062
▁note	-10.8063
85	-10.8064
▁history	-10.8064
ow	-10.8064
望	-10.8072
zioni	-10.8073
▁port	-10.8074
tori	-10.8075
ford	-10.8075
當	-10.8075
دة	-10.8079
-2013	-10.8082
▁tết	-10.8082
▁lin	-10.8082
eme	-10.8083
拳	-10.8085
婚	-10.8086
▁มิถุนายน	-10.8091
▁oldu	-10.8092
▁frank	-10.8093
zinho	-10.8095
▁hq	-10.8096
鳥	-10.8096
ंग	-10.8098
dores	-10.8101
▁terbaik	-10.8102
وف	-10.8103
▁lễ	-10.8104
nn	-10.8106
▁för	-10.8106
孩子	-10.8107
▁nous	-10.8109
校	-10.811
▁eating	-10.8111
رو	-10.8114
▁sir	-10.8116
▁59	-10.8117
▁та	-10.8118
मी	-10.812
▁network	-10.8122
▁ल	-10.8122
▁कि	-10.8123
gameplay	-10.8124
ev	-10.8127
报	-10.8134
▁cumbia	-10.8134
陳	-10.8138
▁101	-10.8139
ır	-10.8142
▁phải	-10.8142
▁moda	-10.8143
তা	-10.8143
▁sezon	-10.8144
ши	-10.8144
▁tank	-10.8146
23}	-10.8146
貴	-10.8146
ทอง	-10.8147
▁pic	-10.8148
▁momento	-10.8151
バトル	-10.8155
▁리	-10.8155
▁gym	-10.8156
▁devil	-10.8159
製	-10.8159
仔	-10.816
▁می	-10.8162
اط	-10.8164
mis	-10.8164
▁sorry	-10.8165
▁bắt	-10.8165
asmr	-10.8167
します	-10.8169
▁truyện	-10.8172
▁tarde	-10.8174
▁walking	-10.8178
▁goal	-10.8179
rov	-10.818
여행	-10.8181
▁cấp	-10.8184
ソロ	-10.8184
.11.	-10.8185
عي	-10.8186
この	-10.8186
▁美	-10.8189
▁wird	-10.8191
68	-10.8191
▁51	-10.8192
ра	-10.8194
हा	-10.8195
िक	-10.8195
▁lirik	-10.8196
▁niño	-10.8196
شي	-10.8197
/19	-10.8197
这么	-10.8198
選手	-10.8201
89	-10.8203
▁bau	-10.8203
zan	-10.8203
▁gui	-10.8203
øm	-10.8205
dora	-10.8208
▁premium	-10.821
▁four	-10.821
洋	-10.8212
▁popular	-10.8217
▁pur	-10.8218
▁bru	-10.822
▁things	-10.8221
记	-10.8227
▁उ	-10.8228
ピ	-10.8229
リア	-10.823
東方	-10.8231
dı	-10.8231
念	-10.8231
▁honor	-10.8233
▁qual	-10.8235
▁ash	-10.8236
▁detik	-10.8237
ぐ	-10.8239
▁aan	-10.8244
übertragung	-10.8244
▁новая	-10.8245
্	-10.8246
▁الناس	-10.8246
▁knight	-10.8247
密	-10.8248
wk	-10.8251
ete	-10.8252
во	-10.8253
ず	-10.8254
cul	-10.8254
aya	-10.8259
▁sĩ	-10.826
▁triệu	-10.8261
lá	-10.8262
▁бо	-10.8263
▁job	-10.8266
zin	-10.8269
쇼	-10.827
ว่า	-10.827
▁presentación	-10.8273
▁personal	-10.8274
sson	-10.8274
▁saga	-10.8274
▁true	-10.8278
сту	-10.8279
派	-10.8281
ría	-10.8281
▁grave	-10.8281
rou	-10.8282
...”	-10.8283
حب	-10.8284
▁campeonato	-10.8285
작	-10.8285
▁libre	-10.8287
sim	-10.8287
тер	-10.829
パン	-10.8293
▁thunder	-10.8295
拿	-10.8297
曝光	-10.8299
बा	-10.8299
입	-10.83
😍😍	-10.8304
พระ	-10.8304
ens	-10.8307
▁mont	-10.831
▁مت	-10.831
/2019	-10.8311
over	-10.8312
dam	-10.8313
론	-10.8316
▁killer	-10.8316
ário	-10.8317
ает	-10.8318
▁souls	-10.8319
uda	-10.8323
▁bahasa	-10.8323
▁thích	-10.8324
种	-10.8325
▁goyang	-10.8325
族	-10.8326
vy	-10.8326
bie	-10.8326
▁авто	-10.8327
▁alam	-10.8327
owe	-10.8329
▁uit	-10.8329
▁상	-10.8331
▁1:	-10.8334
ор	-10.8335
▁organ	-10.8336
불	-10.8336
▁عند	-10.8337
mont	-10.8338
ひ	-10.8339
▁brother	-10.834
刘	-10.8342
▁played	-10.8343
▁الز	-10.8343
▁thị	-10.8344
▁fim	-10.8344
▁lời	-10.8345
ดู	-10.8345
▁phát	-10.8345
▁sẽ	-10.8346
▁aman	-10.8347
gamer	-10.8348
▁#02	-10.835
▁feb	-10.8353
▁core	-10.8356
(6)	-10.8356
พี่	-10.836
▁kamera	-10.8361
▁rob	-10.8362
▁donna	-10.8364
field	-10.8365
wie	-10.8366
😔	-10.8366
ms	-10.8366
▁kur	-10.8367
▁İle	-10.8369
▁설참	-10.8369
▁dra	-10.8371
▁zona	-10.8372
生放送	-10.8372
nova	-10.8377
▁mother	-10.8379
uma	-10.8381
▁أو	-10.8385
中字	-10.8387
一起	-10.839
找	-10.8393
▁exo	-10.8395
설	-10.8395
👇	-10.8395
▁maya	-10.8395
▁beni	-10.8396
▁walker	-10.8397
任	-10.8398
播	-10.8399
-15	-10.84
isa	-10.84
▁tổng	-10.8404
luk	-10.8405
▁bailando	-10.8406
極	-10.841
ndi	-10.8412
▁jeu	-10.8415
96	-10.8415
▁cake	-10.8415
💗	-10.8416
▁concierto	-10.8417
▁message	-10.842
老师	-10.8421
▁말	-10.8423
▁pk	-10.8424
цы	-10.8424
▁store	-10.8424
▁câu	-10.8426
▁آموزش	-10.8427
▁후	-10.8427
ssa	-10.8429
陈	-10.8429
▁98	-10.8429
▁tari	-10.8431
▁coco	-10.8432
▁pool	-10.8432
▁выживание	-10.8433
▁حالة	-10.8433
伊	-10.8436
▁дома	-10.8437
ча	-10.8438
-6	-10.844
در	-10.8441
▁canto	-10.8442
▁राज	-10.8443
關	-10.8444
8064	-10.8444
ien	-10.8446
▁120	-10.8446
ih	-10.8448
▁57	-10.8448
▁coupe	-10.8449
ха	-10.8452
▁방송	-10.8452
▁rang	-10.8453
mur	-10.8455
▁목사	-10.8459
ян	-10.8461
ؤ	-10.8462
▁история	-10.8463
▁56	-10.8463
▁army	-10.8464
▁raya	-10.8468
▁inside	-10.8469
▁아이	-10.847
▁كرافت	-10.8472
不是	-10.8476
▁appartement	-10.8476
▁academy	-10.8478
羽	-10.8478
▁seni	-10.8481
▁princess	-10.8483
▁together	-10.8483
_2	-10.8485
▁daddy	-10.8487
dé	-10.8489
▁salva	-10.8489
▁우	-10.8492
▁kỳ	-10.8495
仙	-10.8496
▁babe	-10.8496
tam	-10.8498
🌸	-10.8498
▁chủ	-10.8498
▁danse	-10.85
-16	-10.85
▁local	-10.85
▁حول	-10.85
▁الجزائر	-10.8501
ペ	-10.8506
vor	-10.8507
▁কা	-10.8508
▁راح	-10.851
▁nói	-10.851
▁wil	-10.8513
▁hasta	-10.8513
근	-10.8515
▁country	-10.8516
藏	-10.8517
zie	-10.8519
od	-10.8519
▁silver	-10.8521
▁تحشيش	-10.8521
fen	-10.8524
cl	-10.8526
ए	-10.8527
hn	-10.8527
▁พ	-10.8529
▁ran	-10.8532
تها	-10.8532
ego	-10.8533
mba	-10.8535
aga	-10.8535
ug	-10.8537
勢	-10.8539
▁vocal	-10.8541
▁doctor	-10.8544
▁мои	-10.8544
rita	-10.8546
▁milan	-10.8548
▁ông	-10.8548
본	-10.8548
經	-10.8549
バン	-10.8551
ín	-10.8553
mah	-10.8555
▁put	-10.856
▁join	-10.856
72	-10.8561
雄	-10.8564
!!!!!!	-10.8566
▁кон	-10.8567
差	-10.8568
高校	-10.8569
箱	-10.857
ld	-10.8572
▁남	-10.8574
▁먹방	-10.8574
zza	-10.8574
▁major	-10.8576
▁andrea	-10.8578
妈妈	-10.8579
于	-10.858
低	-10.8582
▁asia	-10.8582
算	-10.8586
▁dai	-10.8586
击	-10.8587
ホ	-10.8592
輪	-10.8592
▁जनवरी	-10.8593
▁تن	-10.8594
สุด	-10.8594
▁bhai	-10.8597
ische	-10.8601
▁но	-10.8603
ip	-10.8603
▁salvador	-10.8604
ลา	-10.8605
▁발	-10.8605
গ	-10.8606
نت	-10.8606
but	-10.8607
▁américa	-10.8612
추천인	-10.8614
員	-10.8615
4】	-10.8616
업	-10.8621
▁daylight	-10.8622
以	-10.8625
▁telefon	-10.8626
▁serial	-10.8627
▁hua	-10.8627
she	-10.8629
▁février	-10.8633
▁prize	-10.8634
▁الص	-10.8636
▁شوف	-10.8639
▁नि	-10.864
ंड	-10.8643
নি	-10.8643
先生	-10.8645
吹	-10.8645
▁horizon	-10.865
旅行	-10.865
父	-10.8652
▁rumo	-10.8653
і	-10.8653
dl	-10.8654
▁когда	-10.8655
▁tanks	-10.8655
▁nossa	-10.8656
_1	-10.8663
ket	-10.8663
pot	-10.8665
▁tiene	-10.8665
▁الذي	-10.8666
共	-10.8669
▁tiger	-10.867
▁âm	-10.8673
▁rep	-10.8674
▁tab	-10.8678
킹	-10.8678
ふ	-10.8678
▁stra	-10.868
▁fucking	-10.8681
▁والم	-10.8682
▁tara	-10.8682
▁front	-10.8682
▁jest	-10.8683
▁intervista	-10.8685
▁pertama	-10.8686
▁weekend	-10.8687
에게	-10.8698
▁retro	-10.87
▁город	-10.8701
▁lag	-10.8702
चा	-10.8704
▁ave	-10.8705
▁陳	-10.8709
ná	-10.8709
▁gana	-10.8709
▁mm	-10.8709
▁мире	-10.8712
こと	-10.8714
▁church	-10.8714
▁santiago	-10.8715
实	-10.8716
hir	-10.8717
▁จ	-10.8717
▁pode	-10.8718
▁accident	-10.8718
▁mx	-10.8718
▁kol	-10.8722
▁кар	-10.8722
يس	-10.8725
▁george	-10.8726
bts	-10.8728
▁pou	-10.8728
्य	-10.8729
▁**	-10.873
▁होली	-10.8732
▁kap	-10.8733
▁жизни	-10.8734
▁سيد	-10.8734
▁أم	-10.874
▁drop	-10.874
▁جلد	-10.8742
▁journal	-10.8742
▁notre	-10.8744
▁nguyên	-10.8746
轉	-10.8748
▁hong	-10.8748
road	-10.875
▁turn	-10.875
▁bất	-10.875
司	-10.8751
くん	-10.8753
dem	-10.8754
▁cổ	-10.8755
▁दिया	-10.8756
▁الش	-10.8758
▁drawing	-10.8761
mate	-10.8763
.03.	-10.8764
▁negro	-10.8765
▁semi	-10.8765
解説	-10.8766
▁شوفو	-10.8766
▁thật	-10.8769
动画	-10.8769
▁teman	-10.8771
氏	-10.8771
秘	-10.8771
▁miền	-10.8773
▁première	-10.8773
추	-10.8778
▁kam	-10.8779
▁секс	-10.8779
첫충	-10.8782
inter	-10.8784
▁him	-10.8785
▁대구	-10.8786
øk	-10.8787
▁2004	-10.8788
抽	-10.8791
shot	-10.8794
円	-10.8794
れる	-10.8794
▁mustafa	-10.8795
▁سعيد	-10.8796
▁zur	-10.8796
▁agora	-10.8797
▁koi	-10.8797
▁vietsub	-10.88
▁सॉन्ग	-10.88
▁futuro	-10.8805
.06.	-10.8806
▁menu	-10.8806
▁gan	-10.8807
แม่	-10.8809
tore	-10.881
tul	-10.8812
フル	-10.8815
▁mayıs	-10.8815
열	-10.8817
▁suis	-10.8818
你的	-10.8823
cf	-10.8824
▁كامل	-10.8824
sİ	-10.8824
▁cali	-10.8826
▁hunt	-10.8828
仁	-10.8828
▁avengers	-10.8828
▁joue	-10.8829
▁bá	-10.883
▁escolar	-10.883
▁ز	-10.883
▁ska	-10.8834
-03	-10.8834
▁smash	-10.8837
녀	-10.8837
매충	-10.8837
熊	-10.8838
▁fair	-10.8838
▁outro	-10.8839
ران	-10.8839
▁nissan	-10.8845
▁lei	-10.8848
▁65	-10.8851
▁romania	-10.8852
▁दी	-10.8857
▁rec	-10.8857
▁林	-10.8862
▁hương	-10.8863
락	-10.8865
▁danza	-10.8865
맨	-10.8865
vietsub	-10.8867
▁dawn	-10.8867
▁naik	-10.8871
▁french	-10.8872
▁ж	-10.8874
▁maj	-10.8874
.05.	-10.8875
ित	-10.8875
▁са	-10.8876
▁mich	-10.8877
▁batu	-10.8878
تو	-10.8879
鸡	-10.8879
▁word	-10.8881
▁forever	-10.8882
▁chia	-10.8883
▁ปี	-10.8884
kill	-10.8887
ยา	-10.8889
봉	-10.8893
▁coming	-10.8895
83	-10.8895
▁sempre	-10.8896
▁tierra	-10.8896
▁giao	-10.89
いた	-10.8901
কা	-10.8904
ů	-10.8907
▁friday	-10.8907
key	-10.8911
eg	-10.8913
▁farming	-10.8915
▁го	-10.8916
▁tú	-10.8917
언	-10.8917
▁hiện	-10.8917
脸	-10.8918
zhf	-10.892
gro	-10.892
様	-10.892
▁deux	-10.8922
▁http	-10.8924
haus	-10.8927
高清	-10.8934
居	-10.8937
投	-10.8941
gr	-10.8942
ут	-10.8943
▁đấu	-10.8943
hy	-10.8944
奥	-10.8946
eri	-10.8947
▁cola	-10.8948
內	-10.8948
▁gramy	-10.8951
▁ngon	-10.8952
roblox	-10.8953
▁nintendo	-10.8953
断	-10.8957
тор	-10.8959
▁vô	-10.896
▁đức	-10.8961
常	-10.8965
uw	-10.8966
▁clans	-10.8966
tif	-10.8968
瑞	-10.8968
▁korean	-10.8971
▁beim	-10.8971
▁essa	-10.8972
▁đình	-10.8974
▁victor	-10.8977
메	-10.8978
-12	-10.8978
▁too	-10.8978
問	-10.898
bau	-10.898
▁الل	-10.898
▁donald	-10.8981
▁gre	-10.8981
규	-10.8982
葉	-10.8982
▁meta	-10.8983
baby	-10.8984
7802{	-10.8988
▁estado	-10.8988
▁لما	-10.8989
们	-10.8989
tet	-10.8991
▁घर	-10.8993
rina	-10.8994
▁marina	-10.8994
▁mati	-10.8994
▁quer	-10.8995
▁beli	-10.8996
▁jab	-10.8997
hay	-10.8999
▁peru	-10.9
裝	-10.9001
結	-10.9001
演奏	-10.9005
▁fishing	-10.9005
vøø	-10.9006
▁hy	-10.9007
▁#14	-10.9007
▁강남	-10.9009
▁6,	-10.9012
▁ماذا	-10.9012
▁saber	-10.9013
▁couple	-10.9016
▁gopro	-10.9019
▁nhảy	-10.9021
▁thuật	-10.9021
▁chính	-10.9021
美食	-10.9022
itas	-10.9024
▁nahi	-10.9024
▁spin	-10.9024
▁student	-10.9025
/15	-10.9025
يب	-10.9031
▁bermain	-10.9032
▁جديدة	-10.9033
low	-10.9035
バス	-10.9039
▁press	-10.9041
背	-10.9041
맛사지	-10.9043
▁dit	-10.9043
禁	-10.9044
▁oleh	-10.9045
كن	-10.9046
▁pena	-10.9047
▁52	-10.9049
○	-10.9051
▁forte	-10.9052
▁canción	-10.9052
출장오피	-10.9053
-9	-10.9054
女性	-10.9054
yw	-10.9055
▁small	-10.9057
rit	-10.9057
bmw	-10.9059
पा	-10.9059
বি	-10.906
sex	-10.906
فت	-10.9061
▁quê	-10.9061
▁data	-10.9062
称	-10.9064
▁সা	-10.9065
ทาง	-10.9067
▁rồi	-10.9069
▁satu	-10.9073
选	-10.9077
▁बाद	-10.9078
▁छ	-10.9078
▁virtual	-10.908
▁dlc	-10.9082
▁thánh	-10.9085
▁punjabi	-10.9085
活動	-10.909
اع	-10.9092
京	-10.9094
▁exam	-10.9094
หา	-10.9096
陽	-10.9097
fal	-10.9098
▁kg	-10.9099
▁cần	-10.9099
▁bolsonaro	-10.91
~~	-10.91
ила	-10.9102
▁itu	-10.9103
ntes	-10.9103
bs	-10.9105
▁كريم	-10.9107
▁đơn	-10.9107
че	-10.911
shop	-10.911
▁jogos	-10.9112
▁bj	-10.9113
▁dụng	-10.9114
静	-10.9118
結果	-10.9119
▁600	-10.9119
骨	-10.9119
探	-10.912
リン	-10.912
став	-10.912
▁site	-10.9121
▁steam	-10.9122
▁mudah	-10.9123
츠	-10.9123
▁sampai	-10.9123
col	-10.9123
▁gor	-10.9126
羅	-10.9127
▁95	-10.9127
倍	-10.9128
▁لك	-10.9129
▁forza	-10.9129
##	-10.9132
uan	-10.9134
▁barat	-10.9134
▁بوبجي	-10.9134
mia	-10.9134
▁мо	-10.9135
ᅵ	-10.9136
▁após	-10.9138
▁백	-10.9139
ар	-10.9139
▁neymar	-10.9141
▁करें	-10.9142
剑	-10.9142
▁天	-10.9142
elli	-10.9143
اش	-10.9145
祖	-10.9146
تا	-10.9147
경기	-10.9148
▁clips	-10.9154
mé	-10.9156
▁الثالث	-10.9156
▁ky	-10.9159
▁mun	-10.916
使用	-10.916
网友	-10.916
模	-10.9161
至	-10.9162
▁tru	-10.9163
amv	-10.9163
bou	-10.9163
汉	-10.9163
▁rt	-10.9165
▁rage	-10.9165
▁nghệ	-10.9165
▁होगा	-10.9166
cri	-10.9167
망	-10.9167
lä	-10.9168
▁الر	-10.9169
lou	-10.917
สาย	-10.917
▁اخر	-10.917
gli	-10.9172
▁shopping	-10.9173
iva	-10.9176
留	-10.9176
▁ricardo	-10.9176
▁fé	-10.9177
▁tho	-10.918
▁भोजपुरी	-10.918
▁paint	-10.9181
單	-10.9182
▁моё	-10.9182
参加型	-10.9182
mina	-10.9184
▁lesson	-10.9185
脱	-10.9186
▁bhi	-10.9186
遊戲	-10.9186
▁using	-10.9189
▁ха	-10.919
盛	-10.919
▁vn	-10.9191
▁76	-10.9192
丽	-10.9193
女神	-10.9193
▁quand	-10.9193
整	-10.9193
▁three	-10.9194
енко	-10.9195
สาว	-10.9197
▁özel	-10.9199
hard	-10.9199
يك	-10.9201
ポケモン	-10.9201
lli	-10.9203
-20	-10.9204
▁jon	-10.9204
ای	-10.9204
▁marc	-10.9204
रो	-10.9206
▁yok	-10.9206
▁白	-10.9209
▁فعل	-10.9212
825}	-10.9212
逃	-10.9212
▁gone	-10.9213
3]	-10.9213
▁hang	-10.9214
▁bai	-10.9215
▁tt	-10.9217
▁felipe	-10.9217
ax	-10.9218
순	-10.9219
▁legendado	-10.922
组	-10.922
출장전문업소	-10.922
сти	-10.9221
격	-10.9221
丁	-10.9221
▁zor	-10.9222
▁gül	-10.9223
▁tua	-10.9223
jin	-10.9224
日常	-10.9225
훈	-10.9226
▁tamil	-10.9229
mel	-10.923
▁eng	-10.9231
▁танец	-10.9235
▁biết	-10.9236
▁res	-10.9237
▁solar	-10.9237
শ	-10.9238
▁mot	-10.9238
/14	-10.9238
▁mani	-10.9239
▁maggio	-10.9239
▁اله	-10.924
▁위	-10.9241
合集	-10.9244
💥	-10.9244
/06/19	-10.9245
▁ocak	-10.9245
第二	-10.9249
亞	-10.9251
cur	-10.9252
功	-10.9253
▁الد	-10.9253
▁दिन	-10.9254
▁คน	-10.9254
▁mob	-10.9256
▁before	-10.9261
▁bilder	-10.9261
▁코	-10.9263
▁kau	-10.9263
▁تا	-10.9263
see	-10.9263
▁करने	-10.9264
▁çocuk	-10.9264
main	-10.9264
ario	-10.9265
▁6.	-10.9266
▁bez	-10.9267
▁جميل	-10.9267
▁aşk	-10.9267
▁stone	-10.9268
лен	-10.9268
▁spirit	-10.9272
ু	-10.9272
jk	-10.9274
参加	-10.9275
▁milano	-10.9276
▁contro	-10.9277
驚	-10.9277
dur	-10.9278
مو	-10.9279
▁speech	-10.928
不要	-10.9281
beat	-10.9281
ces	-10.9281
▁مح	-10.9281
---	-10.9282
вы	-10.9283
ニュース	-10.9285
▁plays	-10.929
▁kombat	-10.9293
呢	-10.9295
▁arab	-10.9295
▁tang	-10.9296
▁thoại	-10.9297
▁mang	-10.9298
▁sma	-10.9298
iko	-10.9299
62{	-10.9304
▁chez	-10.9305
▁twitch	-10.9307
▁avant	-10.9307
▁account	-10.9307
萌	-10.9308
赤	-10.9308
/05/19	-10.9308
▁nuova	-10.9311
▁blu	-10.9311
합니다	-10.9312
भ	-10.9312
▁đạo	-10.9313
/2	-10.9314
دو	-10.9316
ute	-10.9317
▁музыка	-10.9319
hara	-10.932
/03/19	-10.932
/18	-10.932
▁سعد	-10.9321
ную	-10.9322
▁comme	-10.9322
▁io	-10.9323
▁cast	-10.9324
하고	-10.9324
му	-10.9327
cup	-10.9329
▁vietnam	-10.933
掉	-10.933
▁जय	-10.933
▁где	-10.9331
兒	-10.9333
▁share	-10.9335
約	-10.9335
▁muda	-10.9335
cp	-10.9336
▁اللي	-10.9336
▁salam	-10.9341
▁및	-10.9343
沒	-10.9344
▁đây	-10.9345
▁করে	-10.9346
▁stories	-10.9346
▁اس	-10.9346
ガン	-10.9348
everysing	-10.935
☺	-10.935
▁ди	-10.9351
▁dice	-10.9352
▁châu	-10.9353
▁bí	-10.9354
فا	-10.9356
town	-10.9356
▁مي	-10.9356
डा	-10.9356
▁leg	-10.9358
▁gg	-10.9359
rem	-10.9359
광	-10.9361
их	-10.9363
▁mujeres	-10.9366
▁আমার	-10.9367
병	-10.9367
يني	-10.9367
▁basketball	-10.9368
▁polo	-10.937
▁tm	-10.9371
bas	-10.9372
ieren	-10.9373
▁mapa	-10.9374
▁양	-10.9374
满	-10.9375
▁هدف	-10.9375
▁cri	-10.9378
▁fare	-10.9378
▁calle	-10.938
fire	-10.9381
▁donne	-10.9382
▁minutos	-10.9382
hai	-10.9382
":	-10.9383
▁haus	-10.9384
▁proyecto	-10.9384
▁multiplayer	-10.9385
gua	-10.9387
▁manga	-10.9389
▁instalar	-10.939
苦	-10.9391
💞	-10.9394
▁▶	-10.9395
▁điều	-10.9395
俊	-10.9397
其	-10.9397
康	-10.9398
xo	-10.9399
▁gian	-10.9402
▁hem	-10.9405
操	-10.9406
mai	-10.9406
▁health	-10.9408
▁vy	-10.941
手机	-10.9411
▁lâm	-10.9412
jr	-10.9413
▁tip	-10.9413
▁parkour	-10.9416
梅	-10.9418
lc	-10.9418
▁戦場の絆	-10.9419
撮影	-10.942
.04.	-10.9421
▁pierre	-10.9422
▁العيد	-10.9424
dx	-10.9424
▁ayam	-10.9427
幕	-10.9428
▁sac	-10.9428
oro	-10.943
ист	-10.9433
▁sistema	-10.9434
▁projeto	-10.9435
▁😢	-10.9436
hq	-10.9437
▁better	-10.9439
-04-	-10.944
いい	-10.944
lee	-10.944
▁going	-10.9441
про	-10.9443
▁shu	-10.9443
▁bandung	-10.9445
বা	-10.9447
dão	-10.9447
ù	-10.9452
ソ	-10.9453
必	-10.9453
gna	-10.9455
dro	-10.9455
▁eye	-10.9459
▁noi	-10.9462
kara	-10.9465
▁موسيقى	-10.9467
▁lion	-10.9468
games	-10.9472
ide	-10.9473
▁tous	-10.9473
映画	-10.9474
lol	-10.9475
nam	-10.9476
댄스	-10.9477
行き	-10.9479
북	-10.9481
航	-10.9482
▁bulan	-10.9483
▁rus	-10.9483
нии	-10.9484
▁memes	-10.9488
登場	-10.9491
▁besar	-10.9493
▁почему	-10.9495
業	-10.9497
▁з	-10.9498
jen	-10.9498
ター	-10.9498
アン	-10.9498
浪	-10.95
怎么	-10.9502
الي	-10.9502
kah	-10.9503
cin	-10.9503
fall	-10.9503
▁minute	-10.9504
)))	-10.9504
▁renault	-10.9506
哭	-10.9507
▁hits	-10.9507
وو	-10.9509
▁office	-10.9509
jes	-10.9511
▁рождения	-10.9511
▁vista	-10.9512
▁এই	-10.9512
▁новые	-10.9513
▁mü	-10.9516
سي	-10.9517
ges	-10.9518
異	-10.9518
维	-10.9519
▁muhammad	-10.9519
글	-10.952
调	-10.9521
甜	-10.9521
tem	-10.9521
▁geet	-10.9524
▁richard	-10.9526
弹	-10.9526
▁كان	-10.9527
▁#15	-10.9527
टी	-10.9532
▁فقط	-10.9533
▁lord	-10.9536
▁여	-10.9538
▁child	-10.9539
▁duy	-10.9539
حة	-10.9541
▁гор	-10.9542
片段	-10.9544
عه	-10.9544
▁grup	-10.9545
เกม	-10.9546
雙	-10.9547
▁wife	-10.9549
▁passe	-10.955
轮	-10.955
ula	-10.9552
花絮	-10.9553
▁loco	-10.9556
课	-10.9557
条	-10.9561
▁임	-10.9562
nak	-10.9563
ика	-10.9563
ava	-10.9564
board	-10.9565
/16	-10.9566
▁segundo	-10.9566
▁đông	-10.9566
▁igreja	-10.9567
ным	-10.9568
ød	-10.957
没有	-10.9572
買	-10.9572
▁awards	-10.9572
▁nonstop	-10.9573
🎶	-10.9575
▁futebol	-10.9576
put	-10.9576
べ	-10.9579
eli	-10.958
▁भारत	-10.958
oz	-10.9581
pak	-10.9583
▁tente	-10.9584
▁الغ	-10.9587
▁cuối	-10.9587
ila	-10.959
▁全	-10.9591
▁dress	-10.9593
gl	-10.9594
▁right	-10.9594
▁bela	-10.9596
▁question	-10.9596
ियों	-10.9597
▁kaya	-10.9597
因	-10.9597
▁mak	-10.96
tutorial	-10.9602
▁ren	-10.9602
сы	-10.9603
▁अब	-10.9604
▁franco	-10.9605
rar	-10.9607
lot	-10.9609
ارة	-10.961
ры	-10.961
▁مس	-10.961
cent	-10.9611
事件	-10.9612
▁배	-10.9613
▁samba	-10.9614
▁‏	-10.9614
bach	-10.9615
▁भ	-10.9615
スター	-10.9615
▁저	-10.9616
皇	-10.9621
▁gw	-10.9622
-05-	-10.9622
▁gün	-10.9625
巨	-10.9626
▁shark	-10.9627
dv	-10.9627
▁quay	-10.9629
▁had	-10.9631
▁xx	-10.9631
▁mắt	-10.9631
▁minutes	-10.9633
tum	-10.9633
▁এর	-10.9635
▁وصف	-10.9637
▁agar	-10.9638
泰	-10.9639
😂😂😂	-10.9639
▁cel	-10.964
▁chica	-10.9641
мы	-10.9641
▁nabi	-10.9642
си	-10.9642
▁apresentação	-10.9644
▁oscar	-10.9646
vio	-10.9649
#4	-10.9649
▁without	-10.965
pes	-10.9652
猪	-10.9653
like	-10.9654
▁voy	-10.9655
/13	-10.9656
▁fecha	-10.9658
▁fallout	-10.9658
御	-10.9659
hari	-10.966
มัน	-10.9661
365	-10.9661
rad	-10.9662
sor	-10.9662
▁दो	-10.9662
ese	-10.9663
∑	-10.9665
▁الو	-10.9667
▁(2017)	-10.9671
ゲ	-10.9672
▁sous	-10.9673
▁opera	-10.9673
▁phá	-10.9675
▁ماين	-10.9678
▁steel	-10.9679
чи	-10.968
▁diz	-10.9681
棒	-10.9683
▁amazon	-10.9683
▁wer	-10.9683
▁가수	-10.9684
▁eyes	-10.9686
▁hardcore	-10.9687
▁elle	-10.9687
▁王者荣耀	-10.9687
料	-10.9689
▁русский	-10.9689
▁stan	-10.969
▁السيد	-10.9694
シー	-10.9695
▁ک	-10.9697
▁mercado	-10.9697
▁fra	-10.9697
▁kare	-10.9701
▁sana	-10.9702
▁gaya	-10.9703
▁abu	-10.9704
▁todas	-10.9705
mir	-10.9705
※	-10.9707
▁israel	-10.9708
526}	-10.971
分钟	-10.9711
▁kas	-10.9712
▁ref	-10.9712
▁rider	-10.9717
脚	-10.9717
-18	-10.9717
ht	-10.9719
▁practice	-10.972
复	-10.972
▁ds	-10.9724
😻	-10.9727
ต้อง	-10.9729
▁gear	-10.9731
▁still	-10.9733
را	-10.9737
▁ngakak	-10.9737
▁court	-10.9738
قي	-10.9743
▁বাংলা	-10.9743
▁legal	-10.9746
除	-10.9747
岡	-10.9749
ラジオ	-10.9749
▁tree	-10.975
牙	-10.9752
ья	-10.9752
جو	-10.9754
转	-10.9754
imi	-10.9758
tom	-10.9758
峰	-10.9759
▁footage	-10.9762
বে	-10.9762
▁tk	-10.9763
▁normal	-10.9763
▁adi	-10.9763
▁give	-10.9764
讲	-10.9765
▁canada	-10.9765
▁pis	-10.9766
teil	-10.9766
糖	-10.9766
▁sekolah	-10.9766
rom	-10.9769
rek	-10.9769
▁sec	-10.977
カバー	-10.977
▁trop	-10.977
问	-10.9774
ید	-10.9774
커	-10.9775
▁পা	-10.9775
▁54	-10.9777
amour	-10.9778
老師	-10.9778
健康	-10.9779
▁재	-10.9782
▁huy	-10.9785
্য	-10.9786
▁kami	-10.9787
▁escort	-10.9789
bah	-10.9791
-11	-10.9792
▁praia	-10.9792
টা	-10.9794
র্	-10.9794
▁cy	-10.9795
ство	-10.9797
episode	-10.9797
gie	-10.9797
▁trần	-10.9798
▁mestre	-10.9798
퍼	-10.9799
股	-10.98
93	-10.9801
gia	-10.9801
hra	-10.9802
▁effect	-10.9802
▁papel	-10.9803
飯	-10.9803
별	-10.9805
fg	-10.9806
▁скачать	-10.9806
▁jun	-10.981
▁nome	-10.9811
اتي	-10.9814
▁barra	-10.9814
▁dame	-10.9815
ille	-10.9815
▁самый	-10.9818
▁rj	-10.9819
▁meng	-10.982
▁18+	-10.982
▁플레이	-10.982
▁песни	-10.9823
裏	-10.9825
tiktok	-10.9826
▁будет	-10.9826
2008	-10.9829
すぎる	-10.983
▁mort	-10.983
▁funciona	-10.9831
边	-10.9831
▁nella	-10.9831
endo	-10.9832
▁vive	-10.9833
リング	-10.9835
/06	-10.9836
sis	-10.9838
▁haziran	-10.984
كا	-10.9841
รับ	-10.9843
▁kis	-10.9844
▁fnaf	-10.9844
▁2003	-10.9844
的人	-10.9847
▁vos	-10.9848
▁١٠	-10.9848
▁noir	-10.9849
曾	-10.9849
阳	-10.9849
中文	-10.9852
▁张	-10.9856
▁المن	-10.9859
給	-10.9859
▁대전	-10.9861
普	-10.9862
▁pit	-10.9862
▁北	-10.9863
▁สอน	-10.9866
▁perú	-10.9866
周年	-10.9868
▁wieder	-10.9869
控	-10.9869
▁урок	-10.987
▁öz	-10.987
架	-10.9872
런	-10.9872
崎	-10.9874
▁reel	-10.9874
▁smith	-10.9874
ons	-10.9875
अ	-10.9875
гу	-10.9875
▁sunday	-10.9876
艺	-10.9877
▁haber	-10.9877
bia	-10.9879
رت	-10.988
cq	-10.9881
潮	-10.9882
▁odcinek	-10.9886
▁5,	-10.9888
bul	-10.9888
▁canciones	-10.9889
▁vlogs	-10.989
▁imp	-10.9892
not	-10.9894
▁kick	-10.9895
urs	-10.9895
lv	-10.9896
▁cưới	-10.9897
▁webcam	-10.9897
enza	-10.9897
yn	-10.9897
ului	-10.9898
▁kun	-10.9899
เงิน	-10.99
عد	-10.9902
▁bach	-10.9903
丹	-10.9903
▁فر	-10.9904
チャ	-10.9904
ther	-10.9905
▁patch	-10.9906
▁problem	-10.9907
▁sleep	-10.9907
▁ker	-10.9908
キャラ	-10.9909
▁hs	-10.9911
▁due	-10.9915
▁н	-10.9915
nek	-10.9919
tá	-10.9919
▁bd	-10.9919
▁neo	-10.9921
वि	-10.9923
▁cây	-10.9925
爆笑	-10.9925
▁poco	-10.9925
▁mono	-10.9925
uje	-10.9926
▁hino	-10.9928
▁perro	-10.9928
4{	-10.9928
▁kann	-10.9929
件	-10.9929
yen	-10.9929
▁실	-10.9929
黃	-10.993
▁बे	-10.993
▁concerto	-10.993
▁siempre	-10.993
▁meeting	-10.9933
▁hon	-10.9933
▁ơi	-10.9934
▁gặp	-10.9935
3)	-10.9936
▁warface	-10.9936
率	-10.9936
▁손	-10.9938
ls	-10.9938
▁lip	-10.994
▁nou	-10.994
aire	-10.9943
▁puerto	-10.9945
▁명	-10.9947
▁카	-10.995
▁ảnh	-10.9952
▁男子	-10.9952
▁baja	-10.9953
▁rafael	-10.9955
ý	-10.9957
cast	-10.9961
▁chất	-10.9963
退	-10.9965
▁civil	-10.9965
&#39;	-10.9965
anna	-10.9967
diy	-10.9967
τ	-10.9969
nga	-10.997
▁spiel	-10.9971
▁???	-10.9972
qa	-10.9972
▁bac	-10.9973
▁мини	-10.9973
▁liebe	-10.9974
最強	-10.9974
▁มี	-10.9975
ige	-10.9975
/4	-10.9975
往	-10.9976
▁pon	-10.9979
▁mus	-10.9981
down	-10.9981
▁vila	-10.9985
hua	-10.9987
▁всем	-10.999
aus	-10.9996
▁مد	-10.9998
새	-11.0001
▁ख	-11.0002
▁лучшие	-11.0003
rak	-11.0004
▁شب	-11.0007
web	-11.0007
▁msp	-11.0007
én	-11.0007
▁액괴	-11.0009
▁4,	-11.001
文化	-11.0013
ту	-11.0013
▁potter	-11.0017
▁งาน	-11.0017
▁bil	-11.0018
nc	-11.0019
▁tomb	-11.002
ادي	-11.002
▁الان	-11.0021
😅	-11.0022
дер	-11.0023
▁우리	-11.0025
▁lc	-11.0026
▁boutique	-11.0028
▁wal	-11.0028
▁♪	-11.0031
ım	-11.0033
▁colors	-11.0035
もの	-11.0038
▁triste	-11.0038
mobile	-11.0039
▁murah	-11.0039
jam	-11.0039
74	-11.004
▁cuenta	-11.0042
▁maría	-11.0044
喝	-11.0045
偷	-11.0045
각	-11.0047
實	-11.0048
øq	-11.005
▁ар	-11.0051
▁entertainment	-11.0051
▁aqua	-11.0052
edit	-11.0052
▁2002	-11.0055
▁price	-11.0055
▁desc	-11.0056
ゼ	-11.0057
祭り	-11.0058
▁tricks	-11.0059
例	-11.006
▁فیلم	-11.006
직	-11.0061
▁doraemon	-11.0061
ias	-11.0064
▁marketing	-11.0064
琴	-11.0064
ül	-11.0066
▁maker	-11.0071
▁नया	-11.0073
▁crianças	-11.0073
▁board	-11.0073
ду	-11.0075
cja	-11.0075
▁مصطفى	-11.0079
▁มีนาคม	-11.0079
▁alfa	-11.008
容	-11.0081
cel	-11.0081
莉	-11.0083
ơ	-11.0083
▁blind	-11.0085
▁ot	-11.0085
▁zen	-11.0086
▁durch	-11.0086
city	-11.0087
▁تم	-11.0089
▁fête	-11.009
談	-11.009
▁duos	-11.0092
▁انستا	-11.0094
▁nhé	-11.0094
▁valley	-11.0094
ense	-11.0095
▁cash	-11.0095
bak	-11.0095
▁포	-11.0096
盤	-11.0098
▁shake	-11.0098
漫画	-11.0099
▁vers	-11.01
-07-	-11.0101
▁hearts	-11.0103
▁até	-11.0103
▁gioco	-11.0104
▁बड़ा	-11.0105
女友	-11.0105
▁flow	-11.0107
tou	-11.0108
▁samp	-11.0109
▁marcos	-11.0109
▁flores	-11.0109
bass	-11.0112
เข้า	-11.0114
▁5.	-11.0115
▁fiat	-11.0119
siz	-11.0119
ving	-11.012
.10	-11.012
ein	-11.0122
ə	-11.0125
▁juventus	-11.0125
ца	-11.0126
▁flip	-11.0128
シーン	-11.0129
教育	-11.0131
便	-11.0133
▁mostra	-11.0134
▁cosa	-11.0134
▁প্র	-11.0136
▁rencontre	-11.0137
▁sister	-11.0139
ера	-11.0139
bla	-11.0141
ข่าว	-11.0141
▁mijn	-11.0142
tru	-11.0146
】「	-11.0147
體	-11.0147
▁нет	-11.0147
▁oddbods	-11.0148
▁aniversario	-11.0152
▁ม	-11.0152
▁66	-11.0152
▁infantil	-11.0156
▁báo	-11.0158
ێ	-11.0158
竹	-11.0159
▁hàn	-11.0162
▁slut	-11.0164
たい	-11.0164
桜	-11.0164
▁fla	-11.0167
▁sử	-11.0169
乳	-11.017
ivo	-11.017
mil	-11.017
耳	-11.0172
易	-11.0172
▁fille	-11.0177
▁sayang	-11.0177
▁staffel	-11.0178
付き	-11.018
▁negra	-11.018
▁cơ	-11.0181
대여대생	-11.0182
vas	-11.0182
more	-11.0182
▁97	-11.0183
▁7.	-11.0183
▁تعرف	-11.0185
だけ	-11.0187
84	-11.0188
팀	-11.0188
▁corte	-11.0193
帶	-11.0193
piano	-11.0195
ے	-11.0195
詩	-11.0196
kim	-11.0196
▁أب	-11.02
▁ضحك	-11.02
】《	-11.0204
▁ал	-11.0205
爾	-11.0205
▁hor	-11.0207
입니다	-11.0208
养	-11.0209
جن	-11.021
我们	-11.0211
▁geo	-11.0211
▁through	-11.0212
衝撃	-11.0212
灯	-11.0215
腿	-11.0216
ヌ	-11.0216
▁hak	-11.0217
换	-11.0217
記念	-11.0218
▁rust	-11.022
여대생출장	-11.0223
▁입	-11.0223
撃	-11.0223
▁yes	-11.0224
▁ville	-11.0225
letra	-11.0225
▁sarah	-11.0226
▁rica	-11.0228
gem	-11.0229
▁schi	-11.023
-06-	-11.023
承	-11.0231
▁partidas	-11.0232
pf	-11.0232
amo	-11.0233
담	-11.0235
▁titan	-11.0235
▁lps	-11.0235
?"	-11.0238
▁रो	-11.024
ใหญ่	-11.0241
▁вот	-11.0243
pri	-11.0244
▁وب	-11.0245
▁নতুন	-11.0246
lab	-11.025
▁aj	-11.0251
將	-11.0251
gor	-11.0255
bf	-11.0256
bes	-11.0256
▁😔	-11.0256
▁--->	-11.0257
▁रहे	-11.026
ис	-11.0262
애인대행	-11.0262
▁тв	-11.0263
▁천	-11.0265
▁عل	-11.0265
▁resumen	-11.0265
.07.	-11.0266
uli	-11.0266
▁mou	-11.0266
▁corazón	-11.0267
▁神	-11.0267
▁тур	-11.0268
▁saw	-11.0268
پ	-11.0269
ঁ	-11.0271
ева	-11.0272
▁fui	-11.0272
▁करे	-11.0272
▁kia	-11.0272
▁rad	-11.0273
渡	-11.0274
▁mouse	-11.0274
ロー	-11.0275
▁ای	-11.0277
零	-11.0278
▁cp	-11.028
▁isso	-11.0281
وع	-11.0284
rum	-11.0287
▁пол	-11.0291
▁lyric	-11.0294
ум	-11.0295
big	-11.0296
対	-11.0297
▁warga	-11.0298
بت	-11.0301
น้อย	-11.0302
▁sultan	-11.0302
▁maa	-11.0303
▁mall	-11.0304
▁거	-11.0307
▁release	-11.0307
▁gul	-11.0308
▁gk	-11.0309
▁pixel	-11.0313
▁dangdut	-11.0314
兩	-11.0316
💓	-11.0316
杨	-11.0318
▁á	-11.0318
▁gl	-11.0324
yı	-11.0324
▁東京	-11.0325
▁scenes	-11.0325
▁bukan	-11.0326
▁ocean	-11.0329
湯	-11.033
tube	-11.0331
ぜ	-11.0338
yar	-11.0341
▁यह	-11.0341
▁erdoğan	-11.0342
▁phúc	-11.0343
▁niña	-11.0346
▁meg	-11.0347
▁taylor	-11.035
▁simon	-11.035
▁questions	-11.035
tı	-11.0351
(8)	-11.0351
€	-11.0352
▁order	-11.0352
▁любви	-11.0352
▁deu	-11.0353
▁ig	-11.0353
▁kiếm	-11.0353
アップ	-11.0354
滑	-11.0355
▁च	-11.0356
▁بم	-11.0357
▁yan	-11.0362
โลก	-11.0365
▁kem	-11.0368
▁53	-11.0369
-2017	-11.037
▁เล่น	-11.0371
▁đàn	-11.0371
▁phòng	-11.0372
挑战	-11.0374
▁algo	-11.0375
泉	-11.0375
▁clawe	-11.0377
胸	-11.0378
hp	-11.038
▁electric	-11.0381
villa	-11.0384
ری	-11.0384
▁any	-11.0387
▁bh	-11.039
ики	-11.0391
終	-11.0392
▁pasar	-11.0393
iamo	-11.0393
麗	-11.0395
çi	-11.0397
▁bla	-11.0398
nic	-11.0399
▁kapitel	-11.0399
▁бел	-11.04
▁phú	-11.0402
आ	-11.0405
ком	-11.0405
▁フォートナイト	-11.0406
▁xin	-11.0406
嗎	-11.0407
▁workout	-11.0407
▁raider	-11.0407
▁купить	-11.0407
▁grau	-11.0408
▁muslim	-11.0408
▁nl	-11.0409
坂	-11.0411
😋	-11.0413
▁prix	-11.0414
▁бой	-11.0415
يد	-11.0415
翔	-11.0415
▁١	-11.0416
kr	-11.0416
▁tutti	-11.0417
▁اقوى	-11.0418
▁hayat	-11.0421
style	-11.0424
well	-11.0424
▁geometry	-11.0424
sko	-11.0427
ดา	-11.0427
เด็ก	-11.0428
▁lugar	-11.0429
▁support	-11.043
支	-11.0432
▁dota	-11.0435
▁tf	-11.0438
황제	-11.0438
攻	-11.0439
▁😭	-11.0439
▁देखें	-11.0441
▁nosso	-11.0441
▁gusta	-11.0442
印	-11.0443
▁날	-11.0446
spor	-11.0446
▁윤	-11.0447
ध	-11.0449
lit	-11.045
etto	-11.0451
হ	-11.0451
▁69	-11.0452
까	-11.0453
▁bird	-11.0453
▁bắc	-11.0453
▁jones	-11.0453
▁coro	-11.0453
操作	-11.0455
▁baixar	-11.0455
etta	-11.0456
▁frei	-11.0457
▁cumpleaños	-11.0459
-11-	-11.0461
ข	-11.0462
▁لت	-11.0462
▁evolution	-11.0462
ย์	-11.0464
опр	-11.0464
rada	-11.0467
▁прикол	-11.0468
▁klip	-11.0469
犯	-11.0471
님의	-11.0471
ér	-11.0471
uf	-11.0473
▁cau	-11.0474
̀	-11.0478
▁हिंदी	-11.0479
▁livre	-11.0479
عت	-11.048
▁bear	-11.048
▁valle	-11.0481
女人	-11.0482
真的	-11.0482
▁lernen	-11.0485
▁pun	-11.0485
▁sáng	-11.0486
ました	-11.0486
▁진	-11.0486
たち	-11.0487
▁ready	-11.0488
▁ที่	-11.0488
礼	-11.0488
▁lp	-11.0488
发现	-11.0488
▁sw	-11.0489
▁wanita	-11.0489
▁шоу	-11.049
ااا	-11.0491
作品	-11.0491
▁bee	-11.0492
現	-11.0495
▁says	-11.0496
令	-11.0497
▁الاشتراك	-11.0497
▁capital	-11.0498
▁nhận	-11.0498
▁chuẩn	-11.0502
▁fou	-11.0504
▁comercial	-11.0504
▁pista	-11.0505
逼	-11.0506
▁??	-11.0507
▁bos	-11.0508
谈	-11.0509
サー	-11.0511
ۆ	-11.0511
▁masih	-11.0511
圈	-11.0512
▁rev	-11.0513
power	-11.0514
cı	-11.0514
▁vine	-11.0515
ति	-11.0515
岛	-11.0517
бо	-11.0517
▁4:	-11.0519
▁प्यार	-11.052
彈	-11.0523
▁phố	-11.0526
▁production	-11.0526
▁anniversary	-11.0526
▁excel	-11.0528
▁#16	-11.0529
▁battlegrounds	-11.0531
▁lớp	-11.0531
кин	-11.0533
▁бесплатно	-11.0534
▁गो	-11.0534
овой	-11.0537
eva	-11.0542
/04/2019	-11.0543
▁portal	-11.0548
-01-	-11.055
tique	-11.055
▁toda	-11.055
▁routine	-11.0552
▁حلات	-11.0552
iş	-11.0554
抱	-11.0555
▁pia	-11.0556
▁кол	-11.0557
▁mountain	-11.0558
▁blitz	-11.0558
依	-11.0559
▁أول	-11.056
サン	-11.0561
▁granny	-11.0561
rama	-11.0562
ota	-11.0562
▁нас	-11.0563
ost	-11.0564
ál	-11.0565
▁zee	-11.0565
▁ganhar	-11.0565
دى	-11.0569
▁lưu	-11.0572
vvv	-11.0573
▁lam	-11.0575
씨	-11.0578
▁हुए	-11.0579
ship	-11.058
▁champion	-11.058
▁rem	-11.0582
▁trail	-11.0582
▁три	-11.0583
▁bareng	-11.0583
สี	-11.0584
▁ин	-11.0584
▁화	-11.0587
▁rin	-11.0587
について	-11.0589
▁блок	-11.0589
▁nov	-11.0592
冬	-11.0592
▁resort	-11.0593
▁salah	-11.0594
شت	-11.0597
وق	-11.0598
▁٢٠	-11.0598
▁cura	-11.0598
▁around	-11.06
▁gros	-11.0602
▁پ	-11.0603
▁sharma	-11.0604
府	-11.0605
▁반	-11.0606
رس	-11.0607
微	-11.0607
▁latina	-11.0607
▁pagi	-11.0608
▁bieber	-11.0608
▁กับ	-11.0612
▁aliexpress	-11.0612
▁manda	-11.0613
▁brothers	-11.0614
▁бу	-11.0616
ß	-11.0617
ун	-11.0619
▁vợ	-11.0619
▁importante	-11.0619
▁table	-11.0621
▁cada	-11.0621
cro	-11.0622
▁medley	-11.0627
лет	-11.0628
▁vitória	-11.0629
猛	-11.0631
▁hoe	-11.0632
▁community	-11.0634
💪	-11.0634
视	-11.0634
▁dogs	-11.0636
▁ron	-11.0639
注意	-11.0639
▁beats	-11.0639
hin	-11.0639
▁coisas	-11.0639
нов	-11.064
ファン	-11.0641
▁방	-11.0642
ний	-11.0643
ți	-11.0645
▁aniversário	-11.0647
经	-11.0647
/05/2019	-11.0651
نو	-11.0651
ń	-11.0651
▁3,	-11.0651
▁alice	-11.0654
▁nar	-11.0656
▁edm	-11.0657
df	-11.0658
预告	-11.066
抢	-11.0663
kra	-11.0664
▁كلام	-11.0664
▁buka	-11.0667
竟然	-11.067
▁habib	-11.0671
▁feria	-11.0671
✔	-11.0672
▁rod	-11.0672
演唱	-11.0672
▁cua	-11.0672
انی	-11.0673
▁đội	-11.0674
傷	-11.0674
▁lộ	-11.0675
▁carrera	-11.0677
浩	-11.0678
mom	-11.0678
北京	-11.0678
錢	-11.0679
/03/2019	-11.0681
▁هم	-11.0682
kir	-11.0682
▁первое	-11.0683
vid	-11.0684
▁theo	-11.0692
▁laser	-11.0695
▁universe	-11.0695
ठ	-11.0695
mok	-11.0696
▁goes	-11.0698
▁toma	-11.0698
▁shooting	-11.07
rai	-11.0701
▁dong	-11.0702
ore	-11.0702
▁hola	-11.0703
▁extrait	-11.0703
▁호	-11.0704
ベル	-11.0704
▁sont	-11.0704
▁э	-11.0706
▁nan	-11.0706
iti	-11.0707
そ	-11.0707
istas	-11.0708
珍	-11.0709
▁number	-11.071
كون	-11.0711
▁pesca	-11.0711
sai	-11.0712
▁spielen	-11.0713
ism	-11.0715
▁두	-11.0717
▁mask	-11.0718
▁л	-11.0719
يز	-11.072
▁١١	-11.072
ジャ	-11.0721
▁kre	-11.0721
约	-11.0722
天下	-11.0724
cod	-11.0725
▁الدكتور	-11.0729
隆	-11.073
zio	-11.0732
주소	-11.0732
▁인천	-11.0733
▁مترجمة	-11.0733
▁title	-11.0737
▁giro	-11.0738
uro	-11.0739
▁please	-11.074
▁mos	-11.074
▁mass	-11.0741
▁ufc	-11.0742
-17	-11.0743
▁تش	-11.0744
▁3)	-11.0748
▁송	-11.0749
ปี	-11.0749
貓	-11.075
▁thiếu	-11.075
rse	-11.0752
刷	-11.0754
▁dag	-11.0755
▁7,	-11.0758
▁wali	-11.0759
คุณ	-11.076
▁deutschland	-11.076
жд	-11.0761
서울	-11.0764
▁california	-11.0766
▁science	-11.0767
▁surf	-11.0767
▁seven	-11.0768
▁another	-11.0768
ヨ	-11.0768
▁introduction	-11.0769
示	-11.077
xf	-11.0772
ize	-11.0774
db	-11.0774
▁przy	-11.0774
설참	-11.0776
찬	-11.0776
▁جدید	-11.0778
rul	-11.078
isch	-11.078
▁گ	-11.0781
▁pelea	-11.0782
▁rápido	-11.0784
▁hoạt	-11.0784
▁vis	-11.0785
▁сергей	-11.0786
▁قصيدة	-11.0786
▁blade	-11.0787
▁chị	-11.0789
▁١٢	-11.0792
リーグ	-11.0792
▁если	-11.0792
羊	-11.0792
▁alien	-11.0793
▁halo	-11.0794
바카라사이트	-11.0796
▁ct	-11.0797
plus	-11.0798
员	-11.0798
▁pov	-11.0798
▁слайм	-11.0799
珠	-11.08
マー	-11.0801
▁حي	-11.0801
▁niên	-11.0802
365.	-11.0803
▁playa	-11.0804
▁1440	-11.0807
▁cười	-11.0807
▁suzuki	-11.081
▁deixa	-11.081
チャンネル	-11.0811
▁lit	-11.0813
색	-11.0817
ハイ	-11.082
▁suite	-11.0822
▁amsterdam	-11.0823
▁문	-11.0824
rra	-11.0824
▁netflix	-11.0825
▁prabowo	-11.0826
mania	-11.0827
maz	-11.0828
▁julia	-11.0828
▁кино	-11.0829
tele	-11.0832
speed	-11.0833
▁vision	-11.0833
料理	-11.0834
▁pain	-11.0837
▁și	-11.0838
▁east	-11.084
ите	-11.084
pd	-11.0841
зи	-11.0845
dha	-11.0845
▁ký	-11.0845
rze	-11.0846
▁nike	-11.0847
▁toàn	-11.0847
▁feel	-11.0848
▁gus	-11.0849
▁law	-11.0849
安全	-11.0851
▁يت	-11.0851
▁ла	-11.0851
ぼ	-11.0852
▁٣	-11.0852
▁corre	-11.0854
─	-11.0856
▁ending	-11.0859
▁usar	-11.0859
립	-11.0859
公式	-11.0861
▁estilo	-11.0862
▁fragman	-11.0862
링	-11.0862
▁murder	-11.0865
套	-11.0867
▁fs	-11.0868
▁recorder	-11.0868
mark	-11.0869
etti	-11.0871
▁القناة	-11.0873
▁plaza	-11.0873
▁yt	-11.0874
▁美女	-11.0874
chat	-11.0877
▁chung	-11.0877
ência	-11.088
聽	-11.088
▁влог	-11.088
离	-11.0881
▁كيفية	-11.0881
▁ला	-11.0882
▁일본	-11.0882
▁unter	-11.0885
▁tuấn	-11.0885
▁api	-11.0885
晚	-11.0887
▁٢٠١٧	-11.0887
ゆ	-11.0888
ाई	-11.0888
▁thì	-11.0888
▁thuyết	-11.0889
タン	-11.0889
mica	-11.0892
dou	-11.0892
rang	-11.0892
রি	-11.0893
完整版	-11.0893
坐	-11.0894
▁bell	-11.0896
inde	-11.0898
▁remake	-11.0898
ผู้	-11.0901
▁концерт	-11.0901
빈	-11.0901
▁russian	-11.0903
冠	-11.0904
▁jeux	-11.0904
-12-	-11.0905
▁buy	-11.0906
/03/	-11.0907
▁映画	-11.0908
▁فري	-11.0909
▁boi	-11.0909
▁surat	-11.0911
▁mesa	-11.0911
▁culto	-11.0912
▁trabajo	-11.0913
овый	-11.0915
▁رائعة	-11.0915
饭	-11.0917
▁اعلان	-11.0918
▁flo	-11.0919
からの	-11.092
▁pure	-11.092
▁gb	-11.0922
های	-11.0922
ły	-11.0924
cola	-11.0931
▁سو	-11.0932
卖	-11.0933
령	-11.0934
▁lh	-11.0935
▁self	-11.0939
▁biz	-11.0939
▁đất	-11.0939
kam	-11.094
ळ	-11.0941
version	-11.0941
▁تنفيذ	-11.0941
อยู่	-11.0943
クリア	-11.0943
yer	-11.0944
▁리뷰	-11.0945
▁xl	-11.0945
▁trabalho	-11.0945
▁pd	-11.0945
ลง	-11.0945
ár	-11.0952
蘭	-11.0953
官方	-11.0953
▁kate	-11.0953
質	-11.0958
▁(10	-11.0959
итель	-11.096
▁pb	-11.0963
コラボ	-11.0964
▁thứ	-11.0964
▁phẩm	-11.0966
รี	-11.0967
ppa	-11.097
擊	-11.0972
으	-11.0974
問題	-11.0975
▁route	-11.0975
इ	-11.0976
物語	-11.0976
▁선	-11.0977
▁diciembre	-11.0977
大家	-11.0979
lich	-11.098
طي	-11.0981
▁xo	-11.0981
▁pháp	-11.0982
▁garena	-11.0983
▁nhiều	-11.0984
▁dich	-11.0984
▁gloria	-11.0985
ui	-11.0985
▁filho	-11.0986
省	-11.0987
▁podcast	-11.0987
▁경	-11.0987
術	-11.0988
▁2001	-11.0988
▁88	-11.0988
▁fighter	-11.0988
▁😁	-11.099
▁tail	-11.099
▁110	-11.0992
▁р	-11.0993
限定	-11.0994
room	-11.0995
home	-11.0996
try	-11.0996
都是	-11.0999
▁crush	-11.0999
▁mé	-11.1
ٰ	-11.1
ör	-11.1002
▁الموسم	-11.1003
▁against	-11.1003
kit	-11.1004
▁jordan	-11.1004
講	-11.1006
се	-11.1006
▁गु	-11.1007
▁cl	-11.1009
nov	-11.1009
▁doll	-11.1011
女孩	-11.1012
ator	-11.1013
▁कुमार	-11.1013
กา	-11.1014
ники	-11.1014
▁where	-11.1015
由	-11.1016
んだ	-11.1017
欲	-11.1017
▁president	-11.1019
▁تعلم	-11.102
볼	-11.102
▁twitter	-11.1021
▁mọi	-11.1021
sou	-11.1021
▁cabelo	-11.1023
▁rua	-11.1024
▁كو	-11.1025
▁بيت	-11.1029
害	-11.1029
▁วิธี	-11.103
110	-11.103
護	-11.103
▁💥	-11.103
▁rd	-11.1032
kun	-11.1033
慶	-11.1033
▁warfare	-11.1034
▁rotina	-11.1034
cra	-11.1035
aba	-11.1036
▁سا	-11.1036
เสียง	-11.1036
伤	-11.1037
▁dat	-11.1037
▁cena	-11.1038
オン	-11.1038
ган	-11.1038
▁fiz	-11.1039
▁quien	-11.1041
▁durante	-11.1041
stein	-11.1042
▁kitchen	-11.1042
İl	-11.1043
▁europe	-11.1045
wqa	-11.1045
▁dad	-11.105
qi	-11.105
류	-11.1051
介	-11.1052
feira	-11.1053
▁unit	-11.1053
▁فاير	-11.1053
▁роблокс	-11.1054
▁nhớ	-11.1056
tir	-11.1056
▁추천인	-11.1057
▁😉	-11.1057
cker	-11.1058
奶	-11.1058
▁half	-11.106
▁جي	-11.1061
残	-11.1063
▁yar	-11.1063
▁방법	-11.1063
”,	-11.1064
▁bridge	-11.1065
दी	-11.1065
moto	-11.1065
▁001	-11.1065
رب	-11.1066
aux	-11.1067
▁beste	-11.1071
池	-11.1073
▁comp	-11.1075
▁सरकार	-11.1075
だった	-11.1075
isme	-11.1077
▁giáo	-11.1077
▁mie	-11.1078
ستان	-11.1078
▁expert	-11.1079
▁конкурс	-11.1079
▁رائع	-11.1079
▁cell	-11.108
دار	-11.1082
▁sabe	-11.1082
▁tl	-11.1083
▁স	-11.1083
▁matt	-11.1084
▁cheat	-11.1085
▁٢	-11.1086
▁dentro	-11.1086
运	-11.1088
▁सुपर	-11.1088
ें	-11.109
▁skill	-11.109
คลิป	-11.1091
▁всех	-11.1093
▁egy	-11.1096
▁australia	-11.1096
▁finger	-11.1097
▁building	-11.1097
恐怖	-11.1097
9825	-11.1098
het	-11.1099
▁اسم	-11.11
▁西	-11.11
İm	-11.1101
▁شيلات	-11.1102
▁demi	-11.1102
▁hacker	-11.1103
▁cheb	-11.1103
封	-11.1104
混	-11.1104
▁descripción	-11.1105
▁baş	-11.1105
α	-11.1107
بو	-11.1107
jak	-11.1108
studio	-11.1108
lerİ	-11.1111
▁١٥	-11.1112
มือ	-11.1115
▁الام	-11.1115
具	-11.1116
論	-11.1117
抓	-11.1117
境	-11.1117
教你	-11.1118
▁freddy	-11.1119
▁dapat	-11.1119
fl	-11.1119
▁dani	-11.112
ży	-11.1121
▁cg	-11.1121
▁bbc	-11.1122
▁sant	-11.1123
ну	-11.1124
▁เ	-11.1124
▁قلب	-11.1125
▁96	-11.1125
疑	-11.1128
ника	-11.1128
持	-11.1129
著	-11.1129
▁gram	-11.113
▁bonus	-11.113
▁jungle	-11.1135
▁مات	-11.1135
▁transfer	-11.1136
▁pala	-11.1136
fit	-11.1137
▁ul	-11.1137
-2012	-11.1137
▁banana	-11.1138
▁mic	-11.1139
▁futbol	-11.1139
▁wanna	-11.114
炮	-11.1141
▁peng	-11.1141
▁trận	-11.1144
وري	-11.1144
▁мама	-11.1144
▁dá	-11.1145
届	-11.1146
▁ella	-11.1148
ace	-11.1149
▁premi	-11.1149
▁launch	-11.115
▁روعة	-11.1151
▁광주	-11.1152
lara	-11.1153
▁ту	-11.1154
▁beast	-11.1156
◀	-11.1157
▁رد	-11.116
宝宝	-11.1161
ワールド	-11.1162
▁вер	-11.1162
▁xiaomi	-11.1166
▁kl	-11.1167
▁avoir	-11.1169
▁sexo	-11.1169
ash	-11.1172
▁,,	-11.1172
เมือง	-11.1172
öl	-11.1172
▁bam	-11.1172
▁torre	-11.1173
▁install	-11.1174
▁남자	-11.1175
kur	-11.1175
▁did	-11.1176
紙	-11.1178
遇	-11.1179
▁deel	-11.118
ddy	-11.118
▁abos	-11.1183
ак	-11.1184
▁심	-11.1185
唐	-11.1186
▁restaurant	-11.1187
टा	-11.1187
▁pac	-11.1188
3】	-11.1189
▁ant	-11.1191
uto	-11.1191
▁pake	-11.1193
ello	-11.1195
leg	-11.1196
nel	-11.1197
▁jul	-11.1198
كس	-11.1199
iga	-11.1199
aka	-11.12
哈	-11.1202
det	-11.1203
睡	-11.1205
レイ	-11.1208
▁taki	-11.1209
楼	-11.121
▁sư	-11.1216
▁دا	-11.1217
楽	-11.1218
ต่อ	-11.1221
함	-11.1221
顔	-11.1224
▁championship	-11.1224
ич	-11.1224
▁बड़ी	-11.1226
宗	-11.1229
週	-11.1233
▁csgo	-11.1234
▁dh	-11.1235
dom	-11.1235
ภาพ	-11.1237
▁película	-11.1239
女儿	-11.124
団	-11.124
几	-11.1241
酷	-11.1241
▁один	-11.1242
拜	-11.1244
তি	-11.1249
シャ	-11.1249
▁oder	-11.125
▁dois	-11.125
али	-11.125
▁جميع	-11.1251
▁aksi	-11.1251
kom	-11.1254
︎	-11.1256
▁mina	-11.1256
▁akan	-11.1258
▁ante	-11.126
硬	-11.1261
▁человек	-11.1261
ज़	-11.1262
▼	-11.1263
▁heat	-11.1264
▁charlie	-11.1264
舞台	-11.1264
wd	-11.1266
▁beau	-11.1266
iendo	-11.1267
풍	-11.1267
ある	-11.1267
8782	-11.1269
还是	-11.127
▁सं	-11.1271
न्	-11.1272
▁dy	-11.1276
▁kisah	-11.1276
▁オンライン	-11.1277
▁南	-11.1279
スタ	-11.1279
▁пре	-11.1281
ची	-11.1282
_2018	-11.1282
▁руками	-11.1283
講座	-11.1283
▁prueba	-11.1283
sty	-11.1283
▁ahmet	-11.1284
▁sergio	-11.1286
▁experience	-11.1286
▁october	-11.1288
▁85	-11.1288
▁٦	-11.1288
▁ahmed	-11.1289
iri	-11.129
sat	-11.1292
独	-11.1292
▁ganar	-11.1294
▁mafia	-11.1294
▁interior	-11.1294
▁chance	-11.1296
▁iglesia	-11.1298
▁move	-11.1299
▁شر	-11.13
男人	-11.13
ân	-11.1301
▁university	-11.1301
🤗	-11.1301
▁falta	-11.1302
▁habla	-11.1302
ыл	-11.1304
▁khá	-11.1304
▁aos	-11.1304
▁영	-11.1305
▁اهداف	-11.1305
▁menina	-11.1306
スーパー	-11.1306
▁владимир	-11.1309
가격	-11.1311
1319{	-11.1312
xa	-11.1312
▁новое	-11.1313
▁description	-11.1314
产	-11.1318
▁counter	-11.1318
▁jp	-11.1319
평	-11.1319
▁पुलिस	-11.132
▁garcia	-11.132
やる	-11.1321
اري	-11.1321
された	-11.1323
czy	-11.1324
灵	-11.1325
蛇	-11.1329
uch	-11.1329
▁dev	-11.133
菲	-11.1331
tă	-11.1332
▁zaman	-11.1334
▁miami	-11.1335
▁महा	-11.1336
▁сер	-11.1336
▁jugar	-11.1337
▁bunny	-11.1338
联	-11.1338
▁же	-11.1338
▁새	-11.1339
eren	-11.1341
▁sein	-11.1341
▁viaje	-11.1347
001	-11.1348
▁vật	-11.1348
лю	-11.1348
演唱会	-11.1349
▁wood	-11.1352
▁ون	-11.1352
▁เปิด	-11.1352
▁tran	-11.1353
▁factory	-11.1354
▁roy	-11.1354
▁су	-11.1356
got	-11.1356
cle	-11.1357
なら	-11.1358
nun	-11.1358
▁sb	-11.1358
▁geht	-11.1359
▁hasan	-11.1359
▁yap	-11.1359
wu	-11.136
555	-11.136
▁fine	-11.136
日記	-11.136
▁leben	-11.1361
hor	-11.1361
▁साल	-11.1363
音楽	-11.1364
▁selamat	-11.1364
这样	-11.1365
▁izle	-11.1365
▁hr	-11.1365
uj	-11.1365
▁dor	-11.1365
poli	-11.1365
▁scar	-11.1366
øw	-11.1369
▁sup	-11.137
▁tango	-11.137
▁pump	-11.137
辣	-11.1371
雑談	-11.1371
ló	-11.1372
cara	-11.1374
▁bate	-11.1375
nha	-11.1375
▁((	-11.1376
्स	-11.1377
▁naar	-11.138
▁dễ	-11.1381
су	-11.1382
طة	-11.1383
▁wii	-11.1383
▁castle	-11.1384
pb	-11.1388
▁sorteo	-11.1388
울	-11.1389
core	-11.1389
▁stick	-11.1391
▁время	-11.1391
uu	-11.1395
▁pega	-11.1397
ये	-11.1397
教室	-11.1397
▁bora	-11.1398
▁grandes	-11.1399
▁är	-11.14
绝	-11.14
嘴	-11.14
▁rẻ	-11.14
ผม	-11.14
▁lisa	-11.1401
İr	-11.1402
iel	-11.1406
▁الخير	-11.1406
▁٧	-11.1407
工作	-11.1408
ped	-11.1408
▁देश	-11.141
riya	-11.141
▁trade	-11.1411
▁log	-11.1413
▁٩	-11.1413
rä	-11.1414
▁risa	-11.1415
男友	-11.1416
ъ	-11.1417
▁cewek	-11.1418
アイ	-11.1419
agem	-11.1419
▁نو	-11.1419
ró	-11.1421
▁nun	-11.1421
▁señor	-11.1423
▁büyük	-11.1424
radio	-11.1428
ライト	-11.143
▁steve	-11.1433
▁sel	-11.1433
▁своими	-11.1434
.01.	-11.1435
▁его	-11.1435
acion	-11.1437
чик	-11.1438
char	-11.1439
review	-11.144
press	-11.1444
▁fal	-11.1445
満	-11.1446
mbo	-11.1447
▁wet	-11.1447
▁фортнайт	-11.1449
▁sak	-11.1451
وة	-11.1451
▁clean	-11.1452
वे	-11.1453
▁108	-11.1453
▁its	-11.1455
brawl	-11.1456
▁стар	-11.1456
▁عراقي	-11.1456
▁swing	-11.1456
💛	-11.1457
▁masjid	-11.1458
합	-11.1458
▁uso	-11.1458
ฯ	-11.1459
▁gunung	-11.146
▁72	-11.146
oi	-11.146
ゆっくり	-11.1464
▁девушка	-11.1469
▁aja	-11.1469
rica	-11.147
iyor	-11.147
media	-11.1471
小伙	-11.1473
mani	-11.1473
▁enak	-11.1476
ус	-11.1476
▁there	-11.148
▁puntata	-11.148
▁diablo	-11.1482
▁novembre	-11.1482
▁잘	-11.1482
▁٤	-11.1486
ция	-11.1486
очка	-11.1487
〕	-11.1488
اص	-11.1489
▁cold	-11.149
▁ec	-11.1491
▁мастер	-11.1492
▁wave	-11.1493
▁cra	-11.1495
face	-11.1495
▁ultima	-11.1496
忍	-11.1497
▁bud	-11.1499
ıyor	-11.1502
▁cielo	-11.1503
anne	-11.1503
▁czy	-11.1503
▁hava	-11.1503
ём	-11.1504
盘	-11.1504
▁мар	-11.1506
hel	-11.1506
▁باب	-11.1507
bio	-11.1508
▁tengo	-11.1508
▁مك	-11.1508
燃	-11.1508
▁boat	-11.1511
ขึ้น	-11.1511
▁ns	-11.1512
▁jane	-11.1512
gol	-11.1513
▁ferrari	-11.1513
hm	-11.1514
▁octubre	-11.1514
▁kamu	-11.1515
zon	-11.1516
刺	-11.1516
▁eps	-11.1517
▁study	-11.1517
ใช้	-11.1518
/5	-11.1518
▁jim	-11.1518
▁tira	-11.1519
▁кс	-11.1519
▁eduardo	-11.1519
▁root	-11.1519
pil	-11.152
▁còn	-11.152
▁chân	-11.1524
cken	-11.1527
▁عليك	-11.1528
▁मो	-11.1531
dzie	-11.1532
pac	-11.1534
▁ramadhan	-11.1534
▁حلو	-11.1535
aw	-11.1535
инг	-11.1535
▁camino	-11.1535
▁1/3	-11.1536
▁rise	-11.1537
▁ankara	-11.1537
▁armas	-11.1538
ป่า	-11.1539
ene	-11.154
nico	-11.1541
▁toi	-11.1541
fahrt	-11.1542
▁할	-11.1542
iki	-11.1546
#5	-11.1546
▁dopo	-11.1546
▁louis	-11.1546
▁żywo	-11.1546
▁flight	-11.1546
▁facil	-11.1547
▁phantom	-11.1547
▁fragmanı	-11.1547
直接	-11.1547
▁valor	-11.1548
▁company	-11.1548
▁jana	-11.1549
ви	-11.155
年度	-11.1551
gre	-11.1552
eti	-11.1552
▁coup	-11.1553
anie	-11.1554
▁عشر	-11.1555
▁वाले	-11.1555
▁loca	-11.1556
▁boo	-11.1556
gs	-11.1557
▁آهنگ	-11.1558
▁page	-11.1558
▁फ़रवरी	-11.1559
ili	-11.156
▁orchestra	-11.1562
ária	-11.1564
▁phan	-11.1565
eo	-11.1566
/9	-11.1567
▁spiderman	-11.1567
▁lab	-11.1571
帅	-11.1572
leer	-11.1574
▁running	-11.1575
成人	-11.1575
نج	-11.1577
talk	-11.1581
mie	-11.1582
它	-11.1583
/09	-11.1584
▁امام	-11.1585
▁kro	-11.1585
burg	-11.1585
天使	-11.1586
ış	-11.1586
nce	-11.1587
▁goals	-11.1587
▁lama	-11.1588
▁hậu	-11.159
靠	-11.1592
î	-11.1592
▁cama	-11.1592
arte	-11.1594
оп	-11.1595
▁#17	-11.1604
▁gospel	-11.1605
▁بلا	-11.1605
▁جمال	-11.1606
娜	-11.1607
郎	-11.1607
nne	-11.1608
▁fran	-11.1608
◆	-11.1609
เธอ	-11.1611
▁مر	-11.1613
थ	-11.1614
▁fb	-11.1614
▁deck	-11.1619
預告	-11.1619
fel	-11.1619
▁sản	-11.162
stre	-11.1621
典	-11.1621
▁trước	-11.1621
.00	-11.1623
lei	-11.1624
シュ	-11.1625
राम	-11.1625
▁×	-11.1625
sus	-11.1626
ında	-11.1626
▁tun	-11.1626
なし	-11.1626
ユ	-11.1626
伝	-11.1627
モン	-11.1627
وك	-11.1629
uti	-11.163
วิ	-11.1631
▁tentang	-11.1631
▁centre	-11.1631
intro	-11.1632
ซี	-11.1632
pack	-11.1632
▁horse	-11.1632
ала	-11.1633
.11	-11.1633
.09.	-11.1634
▁lara	-11.1634
▁카지노	-11.1635
베	-11.1637
▁gaz	-11.1637
رك	-11.164
dvd	-11.164
▁ces	-11.1642
▁bonne	-11.1642
▁aka	-11.1644
▁न्यू	-11.1645
▁oil	-11.1646
▁pony	-11.1646
bd	-11.1648
▁bikini	-11.1652
▁pantai	-11.1653
▁اش	-11.1655
▁đề	-11.1657
▁working	-11.166
▁mol	-11.166
▁ef	-11.166
▁cette	-11.1661
rb	-11.1662
sho	-11.1662
▁vụ	-11.1663
бу	-11.1663
▁zelda	-11.1664
▁کلیپ	-11.1665
▁예	-11.1666
▁수원	-11.1666
▁جن	-11.1669
▁yenİ	-11.1669
▁diễn	-11.167
▁anda	-11.1671
▁gai	-11.1671
▁alive	-11.1671
▁sev	-11.1673
▁١٣	-11.1673
▁العراق	-11.1675
▁wifi	-11.1676
▁filmes	-11.1677
▁सी	-11.1679
เม	-11.1679
yl	-11.168
allah	-11.168
散	-11.1681
刚	-11.1681
жи	-11.1682
rn	-11.1683
해요	-11.1683
▁tư	-11.1683
▁their	-11.1684
english	-11.1685
بن	-11.1685
억	-11.1686
▁bolo	-11.1687
▁عم	-11.1687
uga	-11.1688
إ	-11.169
▁तक	-11.169
cen	-11.169
▁যে	-11.169
明星	-11.169
▁frozen	-11.1692
▁jornada	-11.1693
▁fred	-11.1694
呼	-11.1695
敏	-11.1695
のか	-11.1696
▁sci	-11.1696
▁william	-11.1697
জা	-11.17
hand	-11.1701
wing	-11.1702
▁ओ	-11.1702
▁maha	-11.1703
▁আর	-11.1704
▁luc	-11.1704
져	-11.1706
udi	-11.1706
ปลา	-11.1707
▁fps	-11.1707
story	-11.1708
▁чит	-11.1708
zzi	-11.1708
125	-11.1709
▁soft	-11.1709
▁الزين	-11.171
興	-11.171
▁fais	-11.171
▁ابريل	-11.171
虫	-11.171
▁하이라이트	-11.1712
ニー	-11.1713
jet	-11.1713
pati	-11.1714
≪	-11.1714
紀	-11.1716
儿子	-11.1716
▁nao	-11.1721
▁русском	-11.1722
وال	-11.1722
▁inc	-11.1723
▁psg	-11.1724
▁add	-11.1726
▁8.	-11.1729
пер	-11.1729
😄	-11.1729
लो	-11.1729
大阪	-11.173
▁الكريم	-11.1732
▁piscina	-11.1732
▁tattoo	-11.1732
ос	-11.1733
▁find	-11.1734
ایی	-11.1735
-14	-11.1735
▁ligue	-11.1736
azione	-11.1737
▁ryan	-11.1739
极	-11.174
爸爸	-11.174
▁1-1	-11.1741
��	-11.1747
증	-11.1748
▁nama	-11.1749
নে	-11.1749
▁cung	-11.1749
梨	-11.175
▁bayern	-11.1751
▁कु	-11.1753
4/	-11.1753
옥	-11.1754
鼓	-11.1756
▁ス	-11.1756
.08.	-11.1762
▁วันที่	-11.1762
▁حق	-11.1763
産	-11.1763
dre	-11.1764
▁tes	-11.1764
▁pul	-11.1765
▁kelly	-11.1766
мер	-11.1771
blue	-11.1771
▁driver	-11.1771
▁hiệu	-11.1773
ชัย	-11.1773
▁dünya	-11.1774
▁nuevos	-11.1775
▁trí	-11.1777
▁jong	-11.1777
vie	-11.1778
▁barrio	-11.178
▁russia	-11.1781
▁solid	-11.1781
▁नही	-11.1781
のお	-11.1782
vé	-11.1782
▁tranh	-11.1784
▁gs	-11.1785
温	-11.1785
rito	-11.1789
▁paula	-11.1789
▁dinheiro	-11.1789
姫	-11.179
▁لقاء	-11.1792
▁hart	-11.1793
▁эфир	-11.1794
▁bolero	-11.1795
▁وش	-11.1796
ात	-11.1796
골	-11.1796
cchi	-11.1796
▁photos	-11.1797
/02	-11.1798
teur	-11.1799
camp	-11.1799
▁알	-11.1801
▁hen	-11.1802
ница	-11.1802
▁heaven	-11.1804
▁robo	-11.1805
になる	-11.1805
▁deja	-11.1806
เรื่อง	-11.1807
▁он	-11.1807
ход	-11.1808
овая	-11.181
▁pocket	-11.1811
▁только	-11.1813
勇	-11.1815
▁شخص	-11.1815
목사	-11.1815
1212】	-11.1816
fancam	-11.1816
ステージ	-11.1817
นิ	-11.1822
▁시즌	-11.1823
▁orange	-11.1823
ブラ	-11.1824
:30	-11.1824
▁sword	-11.1825
ett	-11.1825
▁bia	-11.1828
▁sendiri	-11.1828
ün	-11.1828
▁ust	-11.1829
cb	-11.1829
党	-11.1829
▁(2016)	-11.183
▁نا	-11.1831
▁neues	-11.1831
鐵	-11.1832
▁ipad	-11.1834
▁airport	-11.1835
gam	-11.1836
▁nacht	-11.1836
▁luar	-11.1837
▁روعه	-11.1838
▁الدنيا	-11.1839
จริง	-11.184
rip	-11.184
▁polisi	-11.1841
▁eric	-11.1843
جة	-11.1844
▁flamengo	-11.1846
▁wisata	-11.1846
铁	-11.1849
最高	-11.185
▁nieuwe	-11.1851
▁nuestro	-11.1852
sq	-11.1852
▁td	-11.1852
tier	-11.1853
▁lindo	-11.1854
_-_	-11.1855
▁abertura	-11.1855
▁should	-11.1855
▁tener	-11.1856
▁hope	-11.1856
▁이유	-11.1856
▁इ	-11.1857
俺	-11.1857
/01/	-11.1857
▁fuego	-11.1857
▁maç	-11.1859
▁lok	-11.186
dz	-11.186
宅	-11.1861
tch	-11.1862
▁haciendo	-11.1862
جد	-11.1863
▁العراقي	-11.1864
ধ	-11.1864
▁1.8	-11.1864
▁गा	-11.1864
情報	-11.1865
rz	-11.1865
▁스트리밍	-11.1866
▁kn	-11.1866
總	-11.1867
▁#03	-11.1868
▁cuba	-11.187
hw	-11.187
▁77	-11.1871
▁hur	-11.1872
سا	-11.1875
▁flat	-11.1877
▁水	-11.1879
▁tiro	-11.1879
▁capa	-11.1881
▁eres	-11.1882
(7)	-11.1883
▁avance	-11.1883
ï	-11.1884
▁خاص	-11.1885
▁87	-11.1886
▁temmuz	-11.1887
ھ	-11.1889
▁cctv	-11.189
▁bt	-11.189
▁angeles	-11.189
ità	-11.1891
▁(3	-11.1892
▁gm	-11.1892
使	-11.1894
▁rừng	-11.1894
🏼	-11.1895
▁हुई	-11.1895
dad	-11.1896
▁여자	-11.1898
▁septiembre	-11.1898
姐	-11.1899
▁gila	-11.19
请	-11.1901
▁phạm	-11.1902
▁lou	-11.1902
nta	-11.1904
靈	-11.1904
▁kos	-11.1904
▁lịch	-11.1904
▁सांग	-11.1905
ーン	-11.1905
مل	-11.1905
-13	-11.1907
1541}	-11.1907
▁bari	-11.191
▁bet	-11.191
▁aventura	-11.1911
▁रहा	-11.1911
lem	-11.1911
▁culture	-11.1912
▁mehmet	-11.1912
ติด	-11.1912
120	-11.1913
sos	-11.1914
▁tac	-11.1916
god	-11.1916
▁मन	-11.1917
▁hollywood	-11.1917
्या	-11.1919
▁casamento	-11.192
fx	-11.192
▁ป	-11.1921
▁luca	-11.1921
▁बन	-11.1922
▁milk	-11.1922
เล	-11.1924
▁films	-11.1927
▁serra	-11.1928
cca	-11.1928
▁cole	-11.193
▁প	-11.1938
▁rindu	-11.1939
▁#18	-11.1941
owanie	-11.1941
▁ngay	-11.1943
▁ry	-11.1943
▁nature	-11.1944
▁arm	-11.1945
幸福	-11.1945
▁semua	-11.1947
納	-11.1948
🙈	-11.1953
pit	-11.1953
▁putri	-11.1953
▁oo	-11.1955
▁keluarga	-11.1955
▁اروع	-11.1957
▁भाग	-11.1958
▁rede	-11.1958
ॉ	-11.1958
暗	-11.1959
▁ку	-11.1959
ほ	-11.1959
▁diva	-11.196
▁hijo	-11.1961
🤣	-11.1961
jay	-11.1964
ches	-11.1966
pel	-11.1967
jp	-11.1969
▁jaya	-11.1971
▁rész	-11.1971
による	-11.1971
▁alles	-11.1973
mara	-11.1977
▁बाबा	-11.1977
โอ	-11.1977
werk	-11.1978
▁愛	-11.1978
胡	-11.1979
▁patrol	-11.1981
学生	-11.1982
▁gratuit	-11.1982
▁ম	-11.1982
spiel	-11.1982
25}	-11.1983
ランク	-11.1986
😀	-11.1986
아이	-11.1988
不能	-11.1988
美人	-11.199
mac	-11.1991
pass	-11.1991
▁wu	-11.1991
anda	-11.1992
ño	-11.1992
▁christ	-11.1992
▁hour	-11.1994
ij	-11.1995
bing	-11.1995
▁mods	-11.1996
帮	-11.1997
▁ทํา	-11.1997
消	-11.2001
stro	-11.2001
yla	-11.2001
ule	-11.2001
▁biển	-11.2002
▁cube	-11.2002
床	-11.2003
▁pakai	-11.2003
▁द	-11.2004
▁fil	-11.2005
лы	-11.2006
▁pv	-11.2006
bha	-11.2006
(9)	-11.2007
▁every	-11.2008
▁close	-11.2008
▁weg	-11.2009
胜	-11.2009
ค่ะ	-11.201
yang	-11.2011
▁thư	-11.2011
佐	-11.2012
説	-11.2012
翻唱	-11.2013
/3	-11.2013
ña	-11.2015
←	-11.2017
asa	-11.2017
▁sole	-11.2018
▁journey	-11.2019
ikan	-11.2019
▁neuer	-11.2019
▁cla	-11.2019
ggi	-11.202
bert	-11.2022
警察	-11.2023
▁encontro	-11.2024
▁left	-11.2024
▁ка	-11.2025
▁сша	-11.2025
查	-11.2026
care	-11.2026
▁tas	-11.2026
▁charles	-11.2027
our	-11.2027
離	-11.2027
들의	-11.2029
123	-11.2029
ave	-11.203
▁٨	-11.203
▁dinero	-11.203
여대생	-11.2031
▁debate	-11.2031
生存	-11.2033
▁romance	-11.2036
▁(4	-11.2036
处	-11.2038
▁carmen	-11.2038
よう	-11.2039
chy	-11.204
대회	-11.204
▁rot	-11.204
▁né	-11.2042
머	-11.2044
观	-11.2045
▁ivan	-11.2046
▁ایران	-11.2046
ड़ी	-11.2047
ही	-11.2047
▁mensaje	-11.2047
賞	-11.2048
▁artist	-11.2048
▁مين	-11.2049
▁võ	-11.2049
▁oyunu	-11.2051
▁aero	-11.2051
姿	-11.2053
オリジナル	-11.2053
▁múa	-11.2054
▁वाला	-11.2056
▁berg	-11.2057
ছে	-11.2057
▁patrick	-11.2059
▁tw	-11.206
лин	-11.206
👉	-11.2061
▁kaise	-11.2062
▁shadows	-11.2062
▁lot	-11.2063
رد	-11.2063
未来	-11.2064
▁zam	-11.2065
冲	-11.2065
練	-11.2065
▁quảng	-11.2067
▁chanson	-11.2068
español	-11.207
▁diri	-11.207
fk	-11.2071
ì	-11.2072
▁ihr	-11.2072
▁الدين	-11.2073
ฟ้า	-11.2073
gos	-11.2074
ек	-11.2077
▁africa	-11.2077
▁пар	-11.2079
▁lv	-11.2079
하게	-11.208
▁file	-11.208
▁alberto	-11.208
青春	-11.2082
▁causa	-11.2082
nor	-11.2082
슬	-11.2083
sión	-11.2086
间	-11.2086
▁bayi	-11.2086
紫	-11.2087
illo	-11.2087
▁mov	-11.2088
▁bebê	-11.209
स्	-11.2092
▁rouge	-11.2092
çe	-11.2092
▁พี่	-11.2096
▁ос	-11.2097
yon	-11.2099
▁coração	-11.2099
bank	-11.21
▁ngờ	-11.21
tron	-11.2101
▁طفل	-11.2101
▁제주	-11.2101
似	-11.2101
▁(3)	-11.2102
nz	-11.2102
▁grind	-11.2104
/05	-11.2105
▁над	-11.2106
euse	-11.2109
lí	-11.2109
▁أفضل	-11.211
▁vir	-11.2112
▁marine	-11.2113
ender	-11.2114
▁böyle	-11.2114
▁張	-11.2116
▁princesa	-11.2116
▁٥	-11.2118
▁ilk	-11.2118
▁cambio	-11.2118
看到	-11.212
กระ	-11.212
返	-11.2121
при	-11.2122
▁سلام	-11.2122
てみた	-11.2124
▁img	-11.2125
▁journée	-11.2125
エル	-11.2127
▁ent	-11.213
ووو	-11.213
寒	-11.2131
szy	-11.2131
วา	-11.2131
аем	-11.2132
▁যা	-11.2134
总	-11.2135
jun	-11.2135
hana	-11.2136
主演	-11.2137
▁tiết	-11.2137
▁clase	-11.2137
中國	-11.2138
مت	-11.2138
▁duet	-11.2138
vip	-11.2138
كة	-11.2139
▁acidente	-11.2141
▁gut	-11.2143
ghi	-11.2143
вод	-11.2144
▁था	-11.2144
امي	-11.2145
▁हर	-11.2146
▁الحياة	-11.2146
▁suka	-11.2147
▁ml	-11.2148
▁jerry	-11.2149
alan	-11.215
▁تح	-11.215
初心者	-11.2151
▁hk	-11.2151
▁quero	-11.2152
▁coreografia	-11.2152
▁[4	-11.2153
-2016	-11.2153
▁astro	-11.2155
カップ	-11.2155
▁fresh	-11.2157
▁bİr	-11.2158
ストーリー	-11.2159
モンスト	-11.2161
▁fairy	-11.2161
▁القلب	-11.2162
▁ks	-11.2162
ге	-11.2164
▁mn	-11.2164
▁63	-11.2164
▁تلاوة	-11.2165
▁زواج	-11.2166
全场	-11.2167
▁coach	-11.2171
▁frente	-11.2171
价	-11.2172
ピアノ	-11.2173
bay	-11.2176
▁١٩	-11.2179
▁cru	-11.218
▁đừng	-11.218
▁amit	-11.218
▁편	-11.218
▁vera	-11.218
コメント	-11.218
▁ول	-11.2182
超级	-11.2182
岩	-11.2184
▁👇	-11.2184
▁otra	-11.2188
бор	-11.219
▁dreams	-11.2192
▁sounds	-11.2192
▁القرآن	-11.2193
公司	-11.2194
への	-11.2195
枚	-11.2195
編成	-11.2196
▁香港	-11.2196
▁सि	-11.2196
▁cobra	-11.2196
át	-11.2197
チャレンジ	-11.2199
▁서비스	-11.2201
시간	-11.2201
える	-11.2202
▁xuất	-11.2203
▁rou	-11.2203
▁huge	-11.2204
◈	-11.2205
▁otro	-11.2207
demo	-11.2207
▁جد	-11.2207
▁cv	-11.2208
adora	-11.221
▁sher	-11.221
▁terre	-11.2211
▁1-0	-11.2212
远	-11.2216
miss	-11.2218
키스방	-11.2219
▁ليلة	-11.222
วง	-11.222
▁taiwan	-11.2221
▁dalla	-11.2221
구출장안마	-11.2221
жа	-11.2222
▁günü	-11.2223
▁volkswagen	-11.2224
▁chưa	-11.2226
гон	-11.2227
▁jung	-11.2229
극	-11.2229
ぬ	-11.2231
▁living	-11.2231
▁scott	-11.2232
오피쓰걸	-11.2235
밤	-11.2235
▁batalha	-11.2236
即	-11.2237
▁nuit	-11.224
▁2018)	-11.2241
พา	-11.2242
ระ	-11.2243
惠	-11.2243
▁electro	-11.2244
ザー	-11.2244
▁sos	-11.2244
انا	-11.2244
rian	-11.2245
홍	-11.2245
dead	-11.2247
浜	-11.2247
農	-11.2248
пол	-11.2249
▁bagi	-11.225
スプラトゥーン	-11.225
获	-11.2252
▁hub	-11.2252
▁pick	-11.2252
▁пе	-11.2253
▁being	-11.2253
▁parc	-11.2253
름	-11.2253
▁خط	-11.2254
채	-11.2255
异	-11.2256
lal	-11.2259
写真	-11.226
/06/2019	-11.226
▁hans	-11.226
▁dzieci	-11.226
لم	-11.226
된	-11.2261
▁does	-11.2262
▁مرة	-11.2264
▁coca	-11.2264
-02-	-11.2265
图片	-11.2265
cómo	-11.2266
宫	-11.2268
上海	-11.2268
▁orquesta	-11.227
انه	-11.2271
▁소개	-11.2271
▁khánh	-11.2272
-【	-11.2274
▁comic	-11.228
gur	-11.2281
싱	-11.2283
▁mystery	-11.2283
▁mí	-11.2284
▁mela	-11.2285
▁আমি	-11.2285
mond	-11.2286
▁pilot	-11.2287
▁নিয়ে	-11.2288
وار	-11.2289
▁cas	-11.2289
▁공개	-11.2289
鉄	-11.229
▁ша	-11.2292
лов	-11.2292
uc	-11.2292
停	-11.2292
ium	-11.2292
ランド	-11.2293
武器	-11.2294
▁180	-11.2295
善	-11.2296
特別	-11.2297
▁ont	-11.2298
▁aceh	-11.2298
韓	-11.2299
女生	-11.23
▁att	-11.2301
nden	-11.2301
▁กุมภาพันธ์	-11.2302
لام	-11.2302
يو	-11.2303
▁물	-11.2304
▁احبك	-11.2305
屆	-11.2306
ブル	-11.2306
হা	-11.2307
▁crystal	-11.2307
哲	-11.2307
▁مدينة	-11.2308
たら	-11.2309
テスト	-11.2309
italia	-11.2309
▁여행	-11.2309
▁complete	-11.2309
say	-11.2311
施	-11.2312
には	-11.2314
-10-	-11.2315
์	-11.2315
▁ऐसा	-11.2316
xk	-11.2316
.03.2019	-11.2317
แรง	-11.2317
▁ض	-11.2317
試合	-11.2318
▁المغرب	-11.2319
rzy	-11.2319
▁menjadi	-11.2319
▁fx	-11.2321
liga	-11.2321
▁smile	-11.2321
ओ	-11.2322
খ	-11.2325
餐	-11.2325
▁dji	-11.2326
▁venta	-11.2326
!!【	-11.2327
▁sg	-11.2328
▁💜	-11.2329
ولي	-11.233
fort	-11.233
▁ohne	-11.2333
▁٢١	-11.2335
친	-11.2335
▁bc	-11.2336
محمد	-11.2338
▁라이브	-11.234
вар	-11.234
▁other	-11.234
數	-11.234
rg	-11.2342
▁prison	-11.2342
柏	-11.2343
▁130	-11.2343
介紹	-11.2345
▁krishna	-11.2346
▁٢٤	-11.2346
▁loja	-11.2346
▁jesús	-11.2349
çı	-11.2349
▁revolution	-11.2349
ก่อน	-11.235
лей	-11.235
▁вечер	-11.235
য়ে	-11.2351
효	-11.2351
▁blackpink	-11.2351
▁pla	-11.2352
tera	-11.2354
▁năng	-11.2358
逆	-11.2359
▁carta	-11.236
▁مه	-11.2361
▁94	-11.2361
▁somos	-11.2361
독	-11.2361
▁tiểu	-11.2362
恐	-11.2362
▁desi	-11.2364
洛	-11.2364
▁ideas	-11.2366
▁cultura	-11.2366
▁sé	-11.2366
쿠	-11.2366
dil	-11.2366
팅	-11.2367
ショー	-11.2368
mut	-11.2368
開封	-11.2369
कार	-11.237
블	-11.237
▁eat	-11.2371
▁hơn	-11.2372
▁kru	-11.2374
▁nhanh	-11.2375
▁list	-11.2376
hack	-11.2377
▁시리즈	-11.2378
▁tặng	-11.2379
▁oct	-11.2379
▁ак	-11.238
▁lk	-11.238
▁بی	-11.238
▁pole	-11.2381
▁ufo	-11.2382
▁٢٥	-11.2382
換	-11.2384
ание	-11.2385
rey	-11.2386
▁polícia	-11.2386
▁канала	-11.2386
▁giả	-11.2386
bh	-11.2387
lic	-11.2387
▁mann	-11.2387
aan	-11.239
▁tìm	-11.239
ew	-11.2393
▁mariage	-11.2393
nice	-11.2394
▁メ	-11.2394
술	-11.2396
ライ	-11.2397
▁ну	-11.2397
▁bs	-11.2397
集锦	-11.2398
▁gry	-11.2399
▁burn	-11.2401
▁carl	-11.2401
▁anima	-11.2402
▁कहा	-11.2402
▁they	-11.2404
sm	-11.2404
▁финал	-11.2406
▁stre	-11.2406
▁dm	-11.2406
▁tạo	-11.2406
▁bố	-11.2408
шки	-11.241
gri	-11.241
sf	-11.241
▁flower	-11.241
رج	-11.241
lito	-11.2411
<	-11.2412
tun	-11.2412
как	-11.2413
سو	-11.2413
rk	-11.2415
▁และ	-11.2415
觀	-11.2417
▁ksi	-11.2419
стрим	-11.242
▁depois	-11.2421
วัด	-11.2421
▁١٤	-11.2422
vent	-11.2423
学校	-11.2424
چ	-11.2425
▁komik	-11.2426
▁thách	-11.2426
😆	-11.2428
8065	-11.2428
▁audition	-11.2429
kkk	-11.243
▁ayu	-11.243
▁khủng	-11.243
▁phật	-11.2431
▁bene	-11.2431
∞	-11.2432
form	-11.2432
公主	-11.2432
〉	-11.2433
tl	-11.2434
▁winner	-11.2434
▁grace	-11.2434
休	-11.2435
欣	-11.2438
ติ	-11.2439
まる	-11.244
下载	-11.244
귀	-11.2441
地球	-11.2442
▁खा	-11.2442
▁viet	-11.2442
▁jar	-11.2443
▁buồn	-11.2443
▁105	-11.2444
▁اح	-11.2444
▁هاي	-11.2446
可愛い	-11.2447
dragon	-11.2449
hof	-11.2452
▁gira	-11.2453
▁একটি	-11.2454
▁rich	-11.2455
▁;)	-11.2457
▁العربية	-11.2457
▁slim	-11.2457
▁rau	-11.2458
▁جر	-11.246
션	-11.2461
▁libro	-11.2465
▁경기	-11.2466
sari	-11.2466
ナイト	-11.2467
巡	-11.2468
▁İzle	-11.2469
स्ट	-11.247
-01	-11.2472
老婆	-11.2473
stone	-11.2473
▁dự	-11.2473
ธ	-11.2474
▁marcelo	-11.2474
▁mate	-11.2474
▁nc	-11.2474
老公	-11.2476
▁wonder	-11.2476
一次	-11.2476
watch	-11.2477
til	-11.2479
▁harga	-11.2481
002	-11.2481
▁gây	-11.2481
حد	-11.2482
akan	-11.2482
折	-11.2482
各	-11.2483
season	-11.2485
ском	-11.2486
▁اداء	-11.2486
یک	-11.2488
rich	-11.2489
शी	-11.2491
▁redemption	-11.2491
tw	-11.2492
♫	-11.2495
▁area	-11.2495
▁skywars	-11.2495
▁honey	-11.2496
▁tienda	-11.2497
▁sofia	-11.2497
000	-11.2499
▁acoustic	-11.2501
▁macron	-11.2501
▁visual	-11.2502
妖	-11.2502
▁fase	-11.2503
ナー	-11.2504
▁item	-11.2504
▁engine	-11.2507
カメラ	-11.2508
▁waz	-11.251
xe	-11.251
▁skins	-11.251
▁सिंगर	-11.2511
▁hòa	-11.2512
tok	-11.2512
▁tower	-11.2512
plan	-11.2514
ров	-11.2515
▁بأ	-11.2515
▁caixa	-11.2516
トラ	-11.2516
▁germany	-11.2517
rma	-11.2517
讓	-11.2518
ジュ	-11.2518
💚	-11.252
▁garage	-11.2521
indo	-11.2522
ละ	-11.2524
▁videosu	-11.2526
ür	-11.253
振	-11.253
▁asta	-11.253
xd	-11.2535
향	-11.2535
▁حرب	-11.2536
▁ви	-11.2536
▁basic	-11.2536
▁salud	-11.2537
ets	-11.2537
___	-11.2538
▁manu	-11.2541
快播	-11.2542
▁tuyệt	-11.2542
フィ	-11.2543
▁euch	-11.2545
,,,	-11.2545
▁^^	-11.2548
تش	-11.255
sil	-11.2553
▁bara	-11.2554
pay	-11.2557
领	-11.2559
▁talks	-11.256
レン	-11.2561
▁eve	-11.2561
参	-11.2562
▁gem	-11.2563
▁kleine	-11.2564
очки	-11.2565
▁देख	-11.2566
▁thiệu	-11.2567
xbox	-11.2567
▁chú	-11.2568
震	-11.257
꽃	-11.257
摩	-11.2571
ابي	-11.2572
▁mañana	-11.2572
▁manchester	-11.2574
/17	-11.2574
999.	-11.2578
بار	-11.258
▁forró	-11.2582
্যা	-11.2583
😜	-11.2583
学院	-11.2584
財	-11.2584
▁단	-11.2585
264	-11.2585
▁well	-11.2585
▁فهد	-11.2585
▁группа	-11.2585
いて	-11.2585
/6	-11.2586
ऊ	-11.2586
▁très	-11.2586
宏	-11.2587
kl	-11.2588
▁ley	-11.2589
▁texas	-11.259
라이브	-11.259
▁temps	-11.2591
boss	-11.2591
eurs	-11.2592
▁chicago	-11.2593
หลัง	-11.2593
▁fica	-11.2593
bike	-11.2594
技巧	-11.2595
▁কে	-11.2597
ucci	-11.2598
▁кур	-11.2598
邊	-11.2599
▁triple	-11.26
▁giugno	-11.2601
贵	-11.2602
범	-11.2603
▁thay	-11.2603
fly	-11.2604
dinho	-11.2606
▁视频	-11.2607
엔	-11.2608
▁آب	-11.2609
aro	-11.2609
wang	-11.2609
▁điểm	-11.2609
剣	-11.261
ラー	-11.261
ве	-11.2611
itos	-11.2611
▁ماي	-11.2611
/02/2019	-11.2613
▁ไม่	-11.2616
▁atau	-11.2617
نك	-11.2617
▁وين	-11.2618
▁٢٣	-11.2618
▁kok	-11.262
nny	-11.262
gram	-11.262
▶	-11.2622
中心	-11.2622
▁crime	-11.2623
叶	-11.2624
▁민	-11.2625
▁massa	-11.2626
lier	-11.2627
▁temple	-11.2627
▁ahora	-11.2628
▁pull	-11.2629
滿	-11.2629
▁senza	-11.2629
▁homme	-11.263
▁noël	-11.2631
ás	-11.2631
▁màu	-11.2632
▁ми	-11.2632
▁grey	-11.2635
▁playstation	-11.2637
▁driving	-11.2638
▁brazil	-11.2638
▁captain	-11.2639
▁skate	-11.2641
最大	-11.2641
▁react	-11.2641
▁form	-11.2642
出演	-11.2643
▁kut	-11.2644
▁kelas	-11.2645
▁bitcoin	-11.2646
menti	-11.2646
▁nad	-11.2647
ائي	-11.2647
endra	-11.2647
ার	-11.2647
▁जान	-11.2648
🙏	-11.2649
ビー	-11.265
▁(12	-11.2651
콘	-11.2652
▁dire	-11.2653
▁zumba	-11.2653
▁دعم	-11.2655
▁skyrim	-11.2656
家族	-11.2657
▁flu	-11.2657
まつり	-11.2657
▁ava	-11.2658
▁liverpool	-11.2659
лар	-11.2659
電影	-11.266
▁turismo	-11.2661
横	-11.2662
rán	-11.2663
▁eis	-11.2664
▁rm	-11.2664
▁bánh	-11.2665
▁pessoas	-11.2665
황	-11.2666
شن	-11.2667
抖音	-11.2668
▁تت	-11.2668
▁kung	-11.2671
▁chien	-11.2671
.19	-11.2672
総	-11.2672
▁브이로그	-11.2673
▁paw	-11.2673
▁trò	-11.2674
кон	-11.2675
圖	-11.2678
▁usb	-11.2678
▁دل	-11.2679
▁thực	-11.268
▁รถ	-11.268
фхц	-11.2683
▁chal	-11.2684
▁francesco	-11.2685
/8	-11.2686
kol	-11.2687
朱	-11.2687
zero	-11.2689
fra	-11.2689
happy	-11.2689
▁rodrigo	-11.2692
▁fancam	-11.2693
▁cerita	-11.2694
人の	-11.2694
▁mayor	-11.2695
▁থেকে	-11.2695
▁الحر	-11.2696
▁tc	-11.2698
透	-11.2699
▁좋은	-11.27
▁пи	-11.27
中的	-11.27
▁#19	-11.2702
▁angry	-11.2702
▁kings	-11.2703
▁청	-11.2703
▁cari	-11.2704
▁text	-11.2704
▁duel	-11.2705
▁punto	-11.2706
▁mashup	-11.2706
eria	-11.2707
▁quiere	-11.2708
ริ	-11.2708
▁sierra	-11.2709
리그	-11.2711
▁inilah	-11.2711
▁🌹	-11.2712
▁mucho	-11.2712
▁حصريا	-11.2712
▁huyền	-11.2713
广告	-11.2713
بك	-11.2714
鉄道	-11.2717
ně	-11.2717
洞	-11.2717
▁minhas	-11.2718
mega	-11.2719
▁asli	-11.2719
伯	-11.272
▁जब	-11.272
▁canon	-11.2721
▁ari	-11.2722
💋	-11.2725
▁imagine	-11.2725
▁차	-11.2725
▁함께	-11.2726
▁wtf	-11.2728
ダー	-11.2729
▁hide	-11.273
ъыь	-11.273
▁andré	-11.2731
▁распаковка	-11.2731
يش	-11.2731
▁всё	-11.2731
炸	-11.2733
ется	-11.2733
▁86	-11.2734
完全	-11.2734
▁работа	-11.2734
幸	-11.2735
▁1.2	-11.2735
▁hôm	-11.2737
▁ib	-11.2738
rico	-11.2738
ตาย	-11.2739
▁fond	-11.2739
حي	-11.274
▁sudah	-11.274
▁ан	-11.2741
▁murat	-11.2742
ię	-11.2743
▁coffee	-11.2743
▁shri	-11.2743
sad	-11.2745
▁gh	-11.2745
▁times	-11.2745
▁soon	-11.2747
▁baila	-11.2748
▁smartphone	-11.2748
げ	-11.2749
▁bảnh	-11.2752
▁feu	-11.2752
픽	-11.2754
晨	-11.2754
▁cay	-11.2755
▁عز	-11.2755
eve	-11.2758
▁المباشر	-11.2759
राज	-11.2759
▁lock	-11.2759
▁68	-11.2761
▁cia	-11.2761
▁benim	-11.2762
رز	-11.2762
whatsapp	-11.2763
▁деньги	-11.2763
▁عبدال	-11.2765
▁1999	-11.2765
eros	-11.2765
▁hugo	-11.2769
▁olsun	-11.2769
▁老	-11.277
▁نار	-11.2771
爽	-11.2773
▁maroc	-11.2773
▁phiên	-11.2774
▁lomba	-11.2776
▁unlimited	-11.2777
يان	-11.2778
▁mea	-11.2779
カル	-11.278
▁voyage	-11.2781
简单	-11.2781
▁tata	-11.2781
لت	-11.2782
太郎	-11.2783
▁توك	-11.2784
축	-11.2784
▁ю	-11.2784
▁guitarra	-11.2784
クロ	-11.2784
▁tn	-11.2785
▁basket	-11.2785
▁٢٦	-11.2787
딩	-11.2787
esi	-11.2788
▁타	-11.2789
▁read	-11.279
▁think	-11.279
-2014	-11.2791
弱	-11.2791
▁موال	-11.2792
▁mesmo	-11.2792
论	-11.2793
hon	-11.2794
▁personas	-11.2794
▁9.	-11.2794
▁موت	-11.2795
ــــ	-11.2796
罪	-11.2799
曼	-11.28
หัว	-11.28
▁नाम	-11.2801
▁famille	-11.2803
▁العاب	-11.2804
▁سوريا	-11.2805
▁samuel	-11.2805
▁مثل	-11.2807
▁devi	-11.2807
▁reyes	-11.2808
槍	-11.2808
▁تر	-11.2808
賀	-11.2809
▁favor	-11.281
▁vòng	-11.281
▁gy	-11.2812
‘	-11.2813
▁800	-11.2814
旗	-11.2814
▁votre	-11.2815
ийк	-11.2816
▁academia	-11.2817
▁바카라	-11.2818
ワン	-11.2818
▁tráiler	-11.2818
thai	-11.2818
▁urban	-11.2819
▁alt	-11.282
▁sti	-11.2821
❤❤	-11.2821
▁fogo	-11.2822
▁aaj	-11.2822
just	-11.2822
▁👌	-11.2822
庭	-11.2824
▁awesome	-11.2825
زه	-11.2825
▁vw	-11.2825
apos	-11.2826
▁خل	-11.2826
役	-11.2827
▁florida	-11.2828
▁nowy	-11.2829
▁جو	-11.2829
ml	-11.283
조건만남	-11.2832
tten	-11.2834
▁এক	-11.2834
.12	-11.2835
▁москва	-11.2835
ญ	-11.2836
ボール	-11.2838
공연	-11.2838
nat	-11.2841
▁timur	-11.2841
▁biasa	-11.2843
▁ই	-11.2843
▁फिर	-11.2844
釣り	-11.2845
dt	-11.2845
лмн	-11.2845
ফ	-11.2847
배팅	-11.2847
ธรรม	-11.2848
완	-11.2848
▁đỉnh	-11.2848
pis	-11.2849
ชีวิต	-11.285
▁draft	-11.285
sl	-11.285
กะ	-11.2851
সা	-11.2851
rel	-11.2851
▁minuto	-11.2853
写	-11.2853
▁gracias	-11.2853
▁emisión	-11.2853
▁천안	-11.2853
▁تخرج	-11.2855
かな	-11.2855
حل	-11.2855
▁हे	-11.2855
ロン	-11.2856
분석	-11.2857
▁reina	-11.2858
▁пред	-11.2858
待	-11.2859
ней	-11.2861
戀	-11.2863
▁١٦	-11.2863
▁forum	-11.2865
▁रही	-11.2865
▁aprile	-11.2866
▁noch	-11.2867
導	-11.2868
lock	-11.2868
▁briga	-11.2868
▁dual	-11.2869
▁raz	-11.2869
▁الشر	-11.2869
kka	-11.287
▁row	-11.2871
▁homenagem	-11.2872
▁casting	-11.2872
▁ple	-11.2872
शा	-11.2872
▁शादी	-11.2873
▁revela	-11.2875
▁pos	-11.2876
bag	-11.2876
بس	-11.2877
▁presentation	-11.2878
sound	-11.2878
▁kız	-11.2879
iert	-11.2879
anta	-11.2883
funny	-11.2884
шка	-11.2884
чшщ	-11.2884
知道	-11.2885
モデル	-11.2887
▁partido	-11.2888
≫	-11.2889
▁math	-11.2889
51{	-11.2889
传奇	-11.2891
▁حتى	-11.2891
▁nap	-11.2891
▁reggae	-11.2892
▁সু	-11.2892
สวย	-11.2892
▁İçin	-11.2893
▁nicolas	-11.2893
▁cũng	-11.2894
ชา	-11.2894
回家	-11.2896
อย่าง	-11.2897
▁11.	-11.2898
▁الملك	-11.2899
▁हम	-11.2899
泡	-11.2899
эюя	-11.29
▁obama	-11.29
ид	-11.2901
▁tier	-11.2902
▁noel	-11.2902
▁metin	-11.2903
-2015	-11.2904
يح	-11.2904
▁حياكم	-11.2907
▁sábado	-11.2907
▁bey	-11.2908
平台	-11.2908
▁سيف	-11.2909
▁áo	-11.2911
▁bollywood	-11.2911
▁世界	-11.2914
陣	-11.2915
▁إن	-11.2915
宁	-11.2918
خت	-11.2922
▁bah	-11.2922
▁colegio	-11.2923
vidéo	-11.2923
gaming	-11.2923
▁열	-11.2923
혜	-11.2924
▁mora	-11.2925
▁エ	-11.2928
▁jessica	-11.2929
ming	-11.2929
▁прогноз	-11.2931
gni	-11.2931
更新	-11.2932
▁hidup	-11.2933
تني	-11.2934
▁sunny	-11.2936
▁названия	-11.2937
澤	-11.2937
클	-11.2938
▁3.0	-11.2938
ward	-11.294
lm	-11.294
▁महाराज	-11.294
▁batalla	-11.2943
▁own	-11.2944
▁cent	-11.2944
▁চ	-11.2947
ไฟ	-11.2951
▁علم	-11.2952
▁indah	-11.2952
▁pata	-11.2954
霸	-11.2954
▁định	-11.2956
ムービー	-11.2956
nci	-11.2956
炎	-11.2957
▁привет	-11.2958
▁لأ	-11.2958
नि	-11.2958
▁陈	-11.2959
atan	-11.2962
▁ба	-11.2964
突然	-11.2965
दार	-11.2967
養	-11.2967
壁	-11.2969
ales	-11.297
লো	-11.297
▁script	-11.2971
现	-11.2973
第三	-11.2975
▁vintage	-11.2978
聯	-11.2979
▁giờ	-11.298
▁名探偵コナン	-11.2982
악	-11.2982
فل	-11.2983
芳	-11.2983
▁काम	-11.2983
吸	-11.2984
ณ	-11.2985
▁premiere	-11.2988
▁上	-11.2988
▁brunette	-11.2989
▁nàng	-11.2989
▁sola	-11.2992
▁acara	-11.2993
▁살	-11.2993
تم	-11.2994
▁مضحك	-11.2995
เจ้า	-11.2996
dm	-11.2996
▁đăng	-11.2998
▁มกราคม	-11.2999
▁shoot	-11.2999
wen	-11.3
▁rir	-11.3001
работ	-11.3001
▁이야기	-11.3002
▁luka	-11.3003
國小	-11.3003
▁се	-11.3005
▁melody	-11.3005
▁telugu	-11.3006
▁transport	-11.3006
▁tea	-11.3007
يلي	-11.301
▁kla	-11.301
▁моем	-11.3011
▁stay	-11.3013
性感	-11.3013
▁ls	-11.3013
▁ор	-11.3013
弟	-11.3014
คา	-11.3014
▁💗	-11.3015
toria	-11.3015
카지노사이트	-11.3016
▁chevrolet	-11.3017
لايك	-11.3019
চ	-11.302
ağı	-11.302
▁울산	-11.3021
یم	-11.3022
▁برای	-11.3022
育	-11.3024
view	-11.3025
▁रा	-11.3026
dek	-11.3027
カン	-11.3028
يع	-11.3028
โม	-11.3028
▁manager	-11.3029
玲	-11.3029
爱情保卫战	-11.3029
▁hết	-11.303
방법	-11.3031
sco	-11.3032
▁gustavo	-11.3033
ük	-11.3033
▁黃	-11.3033
она	-11.3033
ungen	-11.3034
เก	-11.3035
▁brasileiro	-11.3035
▁देखे	-11.3036
yby	-11.3037
▁ola	-11.3038
▁cancer	-11.3038
rado	-11.3042
カラオケ	-11.3042
泥	-11.3043
▁savage	-11.3044
▁yapılır	-11.3046
▁mister	-11.3046
▁món	-11.3047
▁बना	-11.3048
anak	-11.3049
테	-11.3051
▁hands	-11.3053
▁٢٢	-11.3053
대전	-11.3053
jas	-11.3053
▁snap	-11.3054
hou	-11.3056
▁og	-11.3057
şe	-11.3059
cus	-11.3059
▁semaine	-11.3059
ell	-11.3059
▁skills	-11.306
ppe	-11.3061
アイドル	-11.3061
▁return	-11.3062
▁pani	-11.3062
▁hel	-11.3062
▁jen	-11.3063
▁burung	-11.3064
pul	-11.3064
晓	-11.3065
からブロードキャスト	-11.3067
症	-11.3069
▁bha	-11.3069
ドラマ	-11.3069
▁путин	-11.307
▁machen	-11.3071
クラブ	-11.3072
▁모음	-11.3072
▁अपने	-11.3074
สด	-11.3075
▁infinity	-11.3076
▁presiden	-11.3076
كت	-11.3076
▁sorpresa	-11.3076
علي	-11.3077
ใส่	-11.3078
▁chúa	-11.3078
▁widzami	-11.3078
dah	-11.3081
玄	-11.3081
▁kasih	-11.3081
拼	-11.3083
91}	-11.3083
▁corpo	-11.3087
▁ра	-11.3087
외	-11.3087
▁ро	-11.3089
▁chico	-11.3089
変	-11.3089
▁ternyata	-11.3089
▁İ	-11.309
▁momo	-11.309
宴	-11.309
▁sebastian	-11.3091
يرة	-11.3092
欧	-11.3092
妮	-11.3093
feld	-11.3097
▁pari	-11.3097
pic	-11.3098
▁٣٠	-11.3098
▁wot	-11.3099
家庭	-11.31
▁요	-11.3102
cji	-11.3103
▁ни	-11.3103
▁snake	-11.3103
night	-11.3103
▁holiday	-11.3104
▁anthony	-11.3106
▁cepat	-11.3107
▁taxi	-11.3107
列	-11.3107
lf	-11.3107
فه	-11.3108
▁мультик	-11.3109
قل	-11.311
▁militar	-11.311
▁tournament	-11.311
gno	-11.311
そう	-11.3111
▁follow	-11.3112
▁cristina	-11.3113
ania	-11.3114
▁กรกฎาคม	-11.3114
had	-11.3114
王子	-11.3115
주의	-11.3115
昌	-11.3116
▁ninh	-11.3118
xpf	-11.3118
серия	-11.3118
韩国	-11.3119
アル	-11.3119
🍃	-11.3121
▁late	-11.3122
dai	-11.3123
▁스타	-11.3123
树	-11.3124
▁에	-11.3124
وى	-11.3126
▁البلد	-11.3127
택	-11.3127
郭	-11.3128
▁المصري	-11.3128
변	-11.3128
圣	-11.3129
▁cuma	-11.3131
▁레	-11.3132
▁сам	-11.3134
判	-11.3134
یه	-11.3135
▁الموت	-11.3136
سر	-11.3137
▁einfach	-11.3138
2007	-11.3138
▁diana	-11.3138
完成	-11.3139
▁dando	-11.314
▁احلا	-11.3141
▁much	-11.3142
▁maestro	-11.3143
▁ecuador	-11.3144
▁١٨	-11.3144
爱情	-11.3144
▁عشق	-11.3145
▁visit	-11.3145
▁versão	-11.3146
▁البر	-11.3146
▁parodia	-11.3147
▁masuk	-11.3147
▁histoire	-11.3148
▁mukbang	-11.3148
争	-11.3149
▁tape	-11.315
悠	-11.315
▁78	-11.3151
實況	-11.3151
▁bum	-11.3151
▁erste	-11.3151
▁vice	-11.3152
▁learning	-11.3155
são	-11.3156
▁vel	-11.3157
▁hut	-11.3158
▁macht	-11.3161
▁озвучка	-11.3162
น่า	-11.3164
▁hanya	-11.3164
▁बहुत	-11.3166
hab	-11.3166
�	-11.3169
▁것	-11.3169
ファ	-11.3173
▁viola	-11.3173
color	-11.3175
▁我的	-11.3175
▁há	-11.3176
▁williams	-11.3176
work	-11.3176
ざ	-11.3178
▁cyber	-11.3178
▁corazon	-11.3178
▁soundtrack	-11.3179
rod	-11.3182
tions	-11.3182
▁estoy	-11.3183
▁buenos	-11.3183
▁мира	-11.3183
▁играть	-11.3185
▁jennifer	-11.3187
부산	-11.3187
▁شاب	-11.3187
▁castro	-11.3188
苏	-11.319
▁iz	-11.319
但	-11.319
▁girlfriend	-11.3191
燈	-11.3192
杰	-11.3192
▁ता	-11.3192
▁أنا	-11.3192
▁medi	-11.3193
▁surabaya	-11.3194
▁حبيب	-11.3194
▁dubai	-11.3196
tsu	-11.3196
▁paradise	-11.3198
aaa	-11.3199
لی	-11.3199
左	-11.32
メドレー	-11.32
duk	-11.3201
▁naz	-11.3201
▁kala	-11.3201
尊	-11.3203
เท	-11.3205
補	-11.3206
▁alone	-11.3207
」【	-11.3208
ไก่	-11.321
▁89	-11.3211
▁چ	-11.3211
ox	-11.3216
▁平成	-11.3217
2-	-11.3219
▁heavy	-11.322
▁مدريد	-11.3222
ude	-11.3223
휴게텔	-11.3223
▁effects	-11.3224
泪	-11.3225
▁banyak	-11.3226
喜欢	-11.3226
battle	-11.3227
藤	-11.3227
▁gru	-11.3228
iana	-11.3228
enta	-11.3229
▁java	-11.323
ym	-11.3231
dinha	-11.3232
▁10.	-11.3232
▁jahre	-11.3232
ское	-11.3233
▁سن	-11.3233
▁jason	-11.3234
ож	-11.3236
腰	-11.3237
▁tale	-11.3238
손	-11.3238
妙	-11.324
bru	-11.3241
จน	-11.3242
▁energy	-11.3242
.02.	-11.3244
▁عالم	-11.3244
▁hier	-11.3244
▁eden	-11.3245
▁startseite	-11.3245
▁sn	-11.3246
숙	-11.3247
▁chau	-11.3247
▁seus	-11.3248
mic	-11.3249
🖤	-11.3251
tİ	-11.3252
▁estar	-11.3253
▁قال	-11.3253
aca	-11.3255
heim	-11.3256
▁desfile	-11.3257
朋友	-11.3257
록	-11.3257
tay	-11.3258
▁odyssey	-11.3258
05.2019	-11.3259
▁1°	-11.326
▁blo	-11.326
fb	-11.3261
อะไร	-11.3263
▁rojo	-11.3263
▁apo	-11.3264
▁chồng	-11.3265
▁carros	-11.3265
'20	-11.3265
anto	-11.3265
ema	-11.3266
▁peugeot	-11.3267
▁nights	-11.3269
▁workshop	-11.327
▁conference	-11.327
▁nail	-11.3272
알	-11.3272
ايا	-11.3276
ив	-11.3276
▁đám	-11.3276
표	-11.3278
pé	-11.3278
巧	-11.3279
▁nombre	-11.3279
▁clear	-11.3282
раз	-11.3282
شر	-11.3284
▁周	-11.3284
▁evo	-11.3285
▁hol	-11.3285
▁gur	-11.3285
▁cook	-11.3286
▁‎	-11.3287
▁sexual	-11.3288
▁tarot	-11.3289
▁água	-11.3289
가지	-11.329
象	-11.3291
▁noviembre	-11.3291
▁aventuras	-11.3291
โล	-11.3291
▁67	-11.3292
gate	-11.3292
▁lyon	-11.3293
▁sap	-11.3294
tuto	-11.3294
升	-11.3296
▁đang	-11.3297
▁घ	-11.3297
status	-11.3297
▁bahia	-11.3297
▁khách	-11.3299
▁spor	-11.3299
到底	-11.3301
▁pam	-11.3301
▁कांग्रेस	-11.3301
▁cloud	-11.3302
▁외	-11.3302
кова	-11.3303
蓝	-11.3304
▁wenn	-11.3306
▁gri	-11.3306
เด	-11.3307
▁flag	-11.3307
▁product	-11.3308
rpg	-11.3311
▁salman	-11.3312
▁فدوه	-11.3313
sek	-11.3314
▁最新	-11.3315
▁старс	-11.3316
▁लो	-11.3316
▁लेकर	-11.3317
ő	-11.3317
▁海	-11.3317
▁ecco	-11.332
▁٢٨	-11.3321
▁nag	-11.3322
▁py	-11.3322
table	-11.3323
▁isla	-11.3323
請	-11.3324
▁애	-11.3324
वी	-11.3324
uel	-11.3325
告	-11.3325
▁79	-11.3326
عيد	-11.3327
▁aplikasi	-11.3327
丝	-11.3327
каз	-11.3328
실시간	-11.333
▁(11	-11.3331
▁최상위	-11.3332
▁chó	-11.3333
▁phoenix	-11.3333
▁cop	-11.3334
ön	-11.3335
▁영화	-11.3336
▁horny	-11.3337
ию	-11.3337
ทั้ง	-11.3337
dream	-11.3338
▁لات	-11.3338
mari	-11.3338
▁pier	-11.3339
وات	-11.334
لات	-11.3341
소리	-11.3341
理由	-11.3344
▁cause	-11.3344
▁rick	-11.3345
ضي	-11.3346
▁sevilla	-11.3346
▁pretty	-11.3346
یت	-11.3346
abo	-11.3346
瞬间	-11.3347
▁polska	-11.3347
24}	-11.3349
医	-11.3352
▁painting	-11.3353
染	-11.3354
朗	-11.3354
▁hạ	-11.3354
▁моменты	-11.3355
▁muốn	-11.3355
vita	-11.3356
android	-11.3356
سان	-11.3357
read	-11.3357
グラ	-11.3359
▁花	-11.3359
▁đâu	-11.336
▁hate	-11.3362
▁ponte	-11.3363
▁natale	-11.3364
▁lòng	-11.3366
▁putra	-11.3367
rm	-11.3369
▁thức	-11.3369
0000	-11.3369
মি	-11.3369
▁while	-11.337
stand	-11.337
神社	-11.3371
mx	-11.3373
全国	-11.3373
▁zap	-11.3374
هہ	-11.3374
▁май	-11.3374
▁kênh	-11.3375
▁rome	-11.3375
▁hóa	-11.3376
预	-11.3377
▁일상	-11.3378
เขา	-11.3379
▁чем	-11.338
端	-11.338
▁santana	-11.338
▁kind	-11.338
ше	-11.3381
nah	-11.3382
زان	-11.3382
▁المس	-11.3382
▁naat	-11.3384
▁lesbian	-11.3384
▁robin	-11.3385
ドラ	-11.3386
▁müzik	-11.3386
▁1-2	-11.3389
ssen	-11.339
▁strip	-11.3391
动作	-11.3391
▁शिव	-11.3392
酸	-11.3392
抗	-11.3392
▁folk	-11.3392
▁equipo	-11.3393
決	-11.3394
▁passa	-11.3395
創	-11.3395
weg	-11.3398
yal	-11.3401
escu	-11.3401
▁disc	-11.3401
炒	-11.3401
▁hija	-11.3402
韩	-11.3405
▁حسب	-11.3405
ье	-11.3406
▁concept	-11.3407
▁بعض	-11.3408
▁francais	-11.341
경마	-11.341
aku	-11.3411
▁دانلود	-11.3412
▁omar	-11.3413
67}	-11.3413
頂	-11.3414
孝	-11.3416
kla	-11.3416
▁easter	-11.3417
クラ	-11.3419
獨	-11.342
ซ	-11.342
▁92	-11.3421
▁mừng	-11.3421
▁भाई	-11.3422
▁ต	-11.3423
▁farben	-11.3423
cil	-11.3424
▁تع	-11.3424
▁moje	-11.3424
muz	-11.3424
結婚	-11.3426
mhw	-11.3427
ega	-11.3427
cé	-11.3427
▁كي	-11.3428
kp	-11.343
vision	-11.3435
▁wake	-11.3436
حم	-11.3436
▁abone	-11.3439
▁💙	-11.3441
▁レディース	-11.3442
▁jt	-11.3444
▁٢٧	-11.3444
nder	-11.3444
▁polski	-11.3445
▁tit	-11.3446
挑	-11.3446
sum	-11.3449
韓国	-11.345
/01/2019	-11.3451
▁hùng	-11.3452
▁السعودية	-11.3454
▁torres	-11.3455
▁시작	-11.3455
cross	-11.3456
▁kk	-11.3456
范	-11.3457
▁هذه	-11.3457
출장아로마	-11.3457
छ	-11.3458
▁smp	-11.3458
国际	-11.3459
ถึง	-11.346
ঃ	-11.3462
▁بازی	-11.3462
instrumental	-11.3462
же	-11.3463
▁चुनाव	-11.3464
▁#20	-11.3467
เอ	-11.3468
高速	-11.3468
–	-11.3468
ฟรี	-11.347
▁रह	-11.347
▁quran	-11.3471
▁rol	-11.3472
thu	-11.3474
zeit	-11.3477
▁hermano	-11.348
stan	-11.348
▁naj	-11.348
▁entrega	-11.3481
❣	-11.3481
vert	-11.3482
▁hamburg	-11.3483
▁проект	-11.3485
▁anthem	-11.3486
▁โดย	-11.3486
▁fucks	-11.3486
ndan	-11.3486
▁raza	-11.3488
▁estate	-11.3489
angel	-11.349
rik	-11.3491
fs	-11.3491
▁bajo	-11.3492
▁palm	-11.3492
國際	-11.3492
ฮา	-11.3493
ear	-11.3495
▁🎶	-11.3495
grand	-11.3497
▁битва	-11.3498
亿	-11.3499
lage	-11.3499
卓	-11.35
▁storia	-11.3501
jer	-11.3501
رف	-11.3503
▁loop	-11.3503
teaser	-11.3504
▁dirty	-11.3506
祝	-11.3506
▁vân	-11.3508
▁бравл	-11.3509
▁jovem	-11.351
▁municipal	-11.351
축제	-11.3511
マイ	-11.3511
▁1998	-11.3512
ware	-11.3512
▁taman	-11.3513
ще	-11.3514
▁einen	-11.3515
trap	-11.3515
▁phụ	-11.3515
▁不	-11.3516
課	-11.3516
▁.....	-11.3517
▁دعاء	-11.352
慧	-11.3521
▁подписчиками	-11.3522
▁mania	-11.3523
▁есть	-11.3523
▁emma	-11.3524
ラブ	-11.3526
ских	-11.3526
(10)	-11.3526
)[	-11.3527
◑	-11.3528
gil	-11.353
▁русские	-11.3531
ジェ	-11.3532
▁hab	-11.3532
▁angela	-11.3532
▁galera	-11.3532
▁maquillaje	-11.3534
证	-11.3535
lino	-11.3535
▁gaga	-11.3536
時代	-11.3536
ণ	-11.3536
lok	-11.3537
ड़ा	-11.3537
▁اف	-11.354
/20	-11.354
▁manhã	-11.3541
雞	-11.3541
▁лучший	-11.3542
▁pica	-11.3543
▁تعليق	-11.3543
▁২০১৯	-11.3544
▁twin	-11.3545
liche	-11.3546
lap	-11.3548
止	-11.3548
▁sil	-11.3549
▁有	-11.3549
▁nico	-11.3552
▁dulu	-11.3555
аю	-11.3555
▁birds	-11.3555
들이	-11.3557
▁në	-11.3557
盗	-11.3558
खा	-11.3558
合唱	-11.356
结	-11.356
iano	-11.3563
▁мод	-11.3563
04.2019	-11.3565
со	-11.3566
bung	-11.3566
하다	-11.3566
▁huawei	-11.3566
▁cab	-11.3567
يط	-11.3568
ников	-11.3568
밥	-11.3568
▁viernes	-11.3568
िंग	-11.3569
ře	-11.357
benz	-11.357
帝	-11.357
▁verdad	-11.3571
▁visite	-11.3571
希望	-11.3575
iba	-11.3576
short	-11.3577
マインクラフト	-11.3578
忠	-11.3578
тар	-11.3579
صف	-11.3579
▁kul	-11.3579
7362	-11.358
▁매	-11.358
資	-11.358
▁joga	-11.3581
▁menggunakan	-11.3582
짱	-11.3582
▁important	-11.3582
▁iran	-11.3583
▁你	-11.3584
▁일산	-11.3584
▁último	-11.3585
돌	-11.3586
▁pueblo	-11.3586
▁edge	-11.3586
▁trị	-11.3587
▁93	-11.3587
tung	-11.3588
▁bath	-11.3588
▁marcha	-11.3589
▁เกม	-11.359
▁nghiệp	-11.3591
业	-11.3592
ride	-11.3592
▁xanh	-11.3592
▁জা	-11.3592
▁nai	-11.3594
dag	-11.3594
ök	-11.3595
ана	-11.3595
▁만	-11.3595
암	-11.3596
▁bàn	-11.3596
▁xv	-11.3596
رام	-11.3596
▁الكربلائي	-11.3599
uru	-11.3602
▁biệt	-11.3602
▁که	-11.3603
틀	-11.3603
▁ask	-11.3603
歌詞	-11.3603
عرف	-11.3604
▁台灣	-11.3605
▁তা	-11.3606
जन	-11.3606
▁女子	-11.3607
gó	-11.3609
▁игру	-11.3612
페	-11.3612
este	-11.3612
amos	-11.3612
ヴィ	-11.3612
滅	-11.3613
jon	-11.3614
生命	-11.3614
▁73	-11.3615
▁trời	-11.3617
▁thơ	-11.3619
kids	-11.362
▁kerja	-11.3621
ไม่ได้	-11.3623
▁真	-11.3624
aran	-11.3625
▁야	-11.3626
▁trà	-11.3627
▁ww	-11.3627
sec	-11.3627
▁2561	-11.3629
▁tempat	-11.363
▁vương	-11.3633
▁tipos	-11.3635
▁জ	-11.3638
▁vẫn	-11.3639
▁woo	-11.3639
▁bina	-11.364
▁للعربية	-11.3641
▁justice	-11.3641
▁rivera	-11.3641
▁ship	-11.3642
▁porsche	-11.3643
kus	-11.3643
幼	-11.3644
▁fails	-11.3645
▁parade	-11.3646
▁вас	-11.3647
เรา	-11.3647
▁산	-11.3648
णी	-11.3648
▁sát	-11.3649
▁这	-11.365
價	-11.3651
预告片	-11.3651
lly	-11.3654
鹿	-11.3656
▁estou	-11.3657
訪	-11.3657
▁keep	-11.3658
▁길	-11.3659
開始	-11.3661
phone	-11.3661
粉丝	-11.3662
▁truyền	-11.3664
▁قد	-11.3664
▁पे	-11.3665
3{	-11.3665
▁javier	-11.3665
▁андрей	-11.3665
กร	-11.3666
▁بالم	-11.3667
ที	-11.3668
漢	-11.367
完美	-11.3671
777	-11.3671
▁celebration	-11.3672
インチ	-11.3672
麦	-11.3675
▁opel	-11.3677
삼	-11.3677
ków	-11.3678
ası	-11.368
од	-11.3681
apa	-11.3681
▁maior	-11.3681
虐	-11.3681
sız	-11.3683
汽车	-11.3683
ech	-11.3685
tang	-11.3689
▁श	-11.369
▁smk	-11.3692
ช่อง	-11.3692
卫	-11.3692
▁guarda	-11.3692
梁	-11.3693
130	-11.3694
▁عربي	-11.3694
▁bn	-11.3694
nge	-11.3694
▁maja	-11.3696
▁wala	-11.3696
▁niet	-11.3697
▁(8	-11.3697
point	-11.3698
чит	-11.3698
▁(2015)	-11.3698
يدي	-11.3699
▁director	-11.37
▁세계	-11.3701
-09-	-11.3702
▁aim	-11.3703
遠	-11.3704
倉	-11.3704
▁fac	-11.3705
入り	-11.3706
▁floor	-11.3709
▁lopez	-11.3711
bun	-11.3713
▁trading	-11.3713
賣	-11.3713
▁最	-11.3713
ế	-11.3714
▁том	-11.3715
fgo	-11.3715
▁tức	-11.3716
▁ferro	-11.3716
شه	-11.3717
▁ramadan	-11.3717
ーズ	-11.3718
hk	-11.3718
▁seri	-11.3719
结果	-11.372
▁1.0	-11.3721
boo	-11.3721
瀬	-11.3724
ออก	-11.3724
▁senhor	-11.3724
吻	-11.3725
▁chelsea	-11.3726
快速	-11.3726
燕	-11.3727
▁nero	-11.3727
真相	-11.3727
药	-11.3727
压	-11.3728
sik	-11.3729
tana	-11.3729
견	-11.3729
oto	-11.3729
▁баг	-11.3729
▁chết	-11.3731
▁wel	-11.3731
英文	-11.3733
yle	-11.3734
hun	-11.3735
▁tell	-11.3736
▁ай	-11.3737
▁françois	-11.3738
처	-11.3738
▁valentine	-11.3739
▁artis	-11.3739
▁ابراهيم	-11.3739
▁لكل	-11.374
岳	-11.3741
▁tonight	-11.3741
▁thắng	-11.3741
▁presents	-11.3741
.......	-11.3743
▁82	-11.3744
▁hyundai	-11.3744
▁١٧	-11.3744
純	-11.3745
rot	-11.3745
▁casi	-11.3746
▁му	-11.3747
▁nicole	-11.3748
自由	-11.3748
▁الثانية	-11.3748
样	-11.3749
พล	-11.3751
▁pourquoi	-11.3754
▁dino	-11.3756
▁бы	-11.3758
▁espera	-11.3759
▁rak	-11.3759
▁freefire	-11.376
▁bubble	-11.3761
ства	-11.3762
▁responde	-11.3763
▁│	-11.3764
ooo	-11.3765
تين	-11.3767
▁cris	-11.3767
獎	-11.3767
تصميمي	-11.377
▁nên	-11.377
콘서트	-11.377
▁comprar	-11.3771
▁bệnh	-11.3772
bé	-11.3774
末	-11.3775
shin	-11.3777
▁через	-11.3779
備	-11.3779
▁quase	-11.3779
▁2/3	-11.378
転	-11.378
stu	-11.378
▁dona	-11.378
▁filmi	-11.3781
▁dulce	-11.3782
girls	-11.3784
▁alejandro	-11.3785
꾸	-11.3785
yah	-11.3785
▁irmão	-11.3786
คํา	-11.3787
▁كأس	-11.3787
▁लगा	-11.3788
▁create	-11.3789
▁protest	-11.3789
▁romeo	-11.3789
聚	-11.379
👑	-11.379
▁女	-11.3791
vers	-11.3792
▁राजा	-11.3792
観	-11.3792
-08-	-11.3792
عل	-11.3793
▁황	-11.3793
3210{	-11.3793
เดียว	-11.3795
▁1.4	-11.3795
▁영어	-11.3797
カード	-11.3797
बी	-11.3797
▁รัก	-11.3799
▁thân	-11.3799
▁diario	-11.38
体验	-11.3801
▁kumpulan	-11.3803
▁khesari	-11.3807
】1	-11.3809
▁gam	-11.3809
▁mưa	-11.381
▁koncert	-11.381
nza	-11.3811
▁सब	-11.3811
lus	-11.3812
▁roi	-11.3813
вал	-11.3815
▁نبيل	-11.3816
▁punya	-11.3816
อิ	-11.3818
ぁ	-11.3818
ual	-11.3819
▁700	-11.3821
ул	-11.3822
スポーツ	-11.3822
バイク	-11.3822
▁cooking	-11.3822
▁ore	-11.3823
▁volvo	-11.3824
来了	-11.3824
的小	-11.3824
▁blanc	-11.3824
▁ار	-11.3825
▁140	-11.3826
▁106	-11.3827
▁ролик	-11.3827
▁nj	-11.3827
▁sakit	-11.3827
ックス	-11.3828
▁avakin	-11.3828
宣	-11.3828
もう	-11.3829
최	-11.383
acak	-11.3831
school	-11.3831
▁या	-11.3835
sir	-11.3835
▁خير	-11.3835
ono	-11.3836
▁monkey	-11.3837
▁coba	-11.3838
▁হা	-11.3839
▁gio	-11.3839
য়া	-11.3839
▁chant	-11.384
cze	-11.384
▁feira	-11.384
突	-11.3842
це	-11.3842
оч	-11.3843
ضحك	-11.3843
▁showcase	-11.3844
▁role	-11.3845
▁दा	-11.3845
▁kin	-11.3846
प्र	-11.3847
▁recon	-11.3848
▁rhymes	-11.3849
キャ	-11.3849
▁올	-11.385
▁делать	-11.385
寝	-11.385
▁하는	-11.3851
có	-11.3851
🤔	-11.3852
qua	-11.3854
▁thôi	-11.3855
▁пиар	-11.3855
İz	-11.3856
▁dir	-11.3857
▁catch	-11.3857
кс	-11.3858
▁menos	-11.3858
dır	-11.3861
荷	-11.3861
igen	-11.3862
фа	-11.3862
▁rag	-11.3864
yat	-11.3864
ели	-11.3864
▁boda	-11.3864
▁transmisja	-11.3865
妈	-11.3865
▁tot	-11.3865
▁mali	-11.3866
✋	-11.3866
▁รวม	-11.3866
▁oz	-11.3867
予	-11.3867
▁coral	-11.3867
هر	-11.3867
▁blanco	-11.3868
▁langsung	-11.3868
▁생	-11.3869
गढ़	-11.3869
▁क्यों	-11.387
▁kel	-11.387
https	-11.3871
▁pf	-11.3871
xxx	-11.3873
▁governo	-11.3874
ngo	-11.3874
▁tennis	-11.3879
▁1997	-11.3879
▁코스프레가능	-11.388
▁dha	-11.388
凯	-11.3881
sana	-11.3881
▁القارئ	-11.3883
▁밤	-11.3883
▁microsoft	-11.3883
▁أس	-11.3883
▁jailbreak	-11.3883
▁arti	-11.3885
bj	-11.3887
順	-11.3888
اله	-11.3889
▁눈	-11.389
angan	-11.3891
vc	-11.3892
▁regalo	-11.3893
議	-11.3893
運動	-11.3898
▁novia	-11.3898
่ง	-11.3898
اره	-11.3899
/08/	-11.3901
막	-11.3902
▁lô	-11.3902
강남	-11.3904
iphone	-11.3904
rim	-11.3904
袋	-11.3905
уй	-11.3905
guitar	-11.3906
胖	-11.3906
▁kpop	-11.3906
만남	-11.3906
▁stro	-11.3908
▁2-1	-11.3908
注	-11.3908
▁rx	-11.391
von	-11.3912
▁yi	-11.3914
▁бар	-11.3916
クリ	-11.3918
올	-11.3919
▁داخل	-11.392
▁jetzt	-11.3923
nita	-11.3924
ví	-11.3924
▁letter	-11.3925
▁verano	-11.3926
王者	-11.3927
▁حاله	-11.3927
▁350	-11.3927
▁donde	-11.3928
▁गई	-11.3929
▁nana	-11.3929
دين	-11.3931
▁chọn	-11.3931
▁presente	-11.3932
▁설	-11.3932
▁llama	-11.3933
される	-11.3933
▁frag	-11.3935
학원	-11.3935
▁sulla	-11.3937
전문	-11.3937
▁gitar	-11.3938
ант	-11.3938
衛	-11.3938
▁oliveira	-11.3938
园	-11.394
」(	-11.3941
▁ultimo	-11.3942
じゃ	-11.3943
maker	-11.3943
▁cad	-11.3944
▁اسمع	-11.3945
▁senior	-11.3945
▁начало	-11.3946
อา	-11.3946
▁भा	-11.3946
▁٢٩	-11.3946
穴	-11.3948
▁сегодня	-11.3948
रिया	-11.3948
▁91	-11.3949
▁yaz	-11.3949
戸	-11.3951
▁desert	-11.3951
иль	-11.3952
▁태	-11.3953
▁২	-11.3954
▁gtx	-11.3958
ên	-11.3958
সি	-11.3959
▁köyü	-11.396
▁demon	-11.3961
sea	-11.3963
탈	-11.3966
▁lado	-11.3969
raz	-11.397
にて	-11.3971
▁reforma	-11.3972
▁sedih	-11.3973
uff	-11.3974
▁rare	-11.3974
예배	-11.3974
▁365	-11.3975
批	-11.3975
プラ	-11.3975
یان	-11.3976
▁+18	-11.3976
▁vanessa	-11.3976
high	-11.3976
▁bata	-11.3977
fri	-11.3977
niczki	-11.3978
▁xp	-11.3978
필	-11.3978
▁dzień	-11.3979
盃	-11.398
▁bê	-11.398
▁rela	-11.3981
▁problema	-11.3983
▁کا	-11.3985
▁chí	-11.3985
▁zoom	-11.3986
hindi	-11.3987
مس	-11.3988
▁الكر	-11.3988
▁راب	-11.3988
▁corsa	-11.3989
fifa	-11.3989
isha	-11.3989
▁duck	-11.399
▁sept	-11.3992
▁same	-11.3992
▁stu	-11.3992
可能	-11.3993
▁elena	-11.3994
ски	-11.3996
哪	-11.3996
ён	-11.3996
▁सो	-11.3998
▁bjp	-11.3998
▁abi	-11.3999
▁fusion	-11.3999
试	-11.3999
▁treino	-11.4001
第一次	-11.4002
serie	-11.4003
▁wrong	-11.4004
▁stefan	-11.4005
▁femmes	-11.4005
▁12.	-11.4006
▁رئيس	-11.4007
齐	-11.4007
▁giant	-11.4007
▁위한	-11.4007
▁moc	-11.4008
▁svenska	-11.4009
lig	-11.401
▁बात	-11.4011
▁صف	-11.4011
▁hyper	-11.4012
gul	-11.4012
▁khai	-11.4012
▁thầy	-11.4014
الله	-11.4014
زا	-11.4015
call	-11.4015
▁১	-11.4016
▁rallye	-11.4016
▁ман	-11.4017
▁steven	-11.4017
襲	-11.4017
▁पहले	-11.4019
راء	-11.4019
▁ngu	-11.402
▁طريقه	-11.402
原因	-11.402
2【	-11.4021
▁wheels	-11.4021
歌手	-11.4021
▁father	-11.4022
4【	-11.4023
桃	-11.4024
起来	-11.4025
インタビュー	-11.4026
▁rita	-11.4026
ライン	-11.4027
▁الجديدة	-11.4029
荒野行動	-11.4029
网站	-11.4029
miz	-11.4029
▁minor	-11.4029
บา	-11.403
▁आई	-11.4031
▁ngoại	-11.4031
kul	-11.4031
عب	-11.4031
など	-11.4031
💘	-11.4032
▁👉	-11.4032
▁conseguir	-11.4033
围	-11.4033
출장샵추천	-11.4033
▁past	-11.4034
søø	-11.4035
▁rodriguez	-11.4037
▁عاجل	-11.4038
計	-11.4039
wel	-11.4039
▁rescue	-11.404
▁result	-11.404
tab	-11.404
/2017	-11.4041
pla	-11.4042
ullah	-11.4042
▁집	-11.4043
ดาว	-11.4044
临	-11.4044
▁تس	-11.4045
ста	-11.4045
▁abs	-11.4045
이다	-11.4047
zzo	-11.4047
億	-11.4051
▁holland	-11.4051
乃	-11.4052
bahn	-11.4052
▁bloque	-11.4053
▁used	-11.4054
▁gomez	-11.4055
kari	-11.4058
ष	-11.4061
▁tablet	-11.4061
esta	-11.4061
abi	-11.4063
เปิด	-11.4063
▁تحت	-11.4063
忘	-11.4063
パート	-11.4063
▁sla	-11.4065
▁пу	-11.4065
惊	-11.4065
▁lub	-11.4067
▁unidos	-11.4067
タイム	-11.4068
ед	-11.4069
▁amp	-11.4069
▁lai	-11.4069
▁nuestra	-11.4069
▁carol	-11.4071
▁quinta	-11.4071
vic	-11.4071
或	-11.4071
ぷ	-11.4073
▁jeff	-11.4077
▁lạ	-11.4078
good	-11.408
▁primavera	-11.408
रू	-11.4082
▁간	-11.4083
gm	-11.4084
票	-11.4084
▁bul	-11.4085
vit	-11.4085
▁pelicula	-11.4086
辛	-11.4086
▁ná	-11.4087
▁حر	-11.4087
ทุก	-11.4088
vre	-11.4088
tk	-11.4088
ёр	-11.4088
▁ث	-11.4089
ёт	-11.4089
▁hole	-11.4089
▁मैं	-11.4089
▁evolved	-11.4089
▁फ	-11.409
▁(16	-11.409
직캠	-11.4092
▁mental	-11.4093
鞋	-11.4093
دن	-11.4095
▁vinh	-11.4097
▁перед	-11.4097
▁ناصر	-11.4098
▁heute	-11.4098
бы	-11.41
▁pepe	-11.4101
护	-11.4101
▁청주	-11.4101
صاب	-11.4102
▁putih	-11.4103
▁plane	-11.4103
▁tat	-11.4104
▁superhit	-11.4105
▁danh	-11.4105
▁error	-11.4106
▁female	-11.4106
nus	-11.4106
竜	-11.4107
moni	-11.4109
▁tham	-11.411
▁destruction	-11.4111
プリ	-11.4111
shu	-11.4111
▁初	-11.4111
▁henry	-11.4112
▁rycerze	-11.4112
▁fir	-11.4113
гор	-11.4114
버전	-11.4115
索	-11.4117
▁gagal	-11.4118
▁ví	-11.4119
او	-11.4119
▁1/4	-11.412
▁alba	-11.412
▁бес	-11.4121
tp	-11.4121
ابة	-11.4122
007	-11.4123
▁verdade	-11.4124
gat	-11.4124
▁dio	-11.4124
▁مج	-11.4124
▁سی	-11.4124
▁shock	-11.4125
🌷	-11.4125
▁election	-11.4125
発表	-11.4125
附	-11.4127
▁قتل	-11.4128
レース	-11.4129
▁marche	-11.413
▁قر	-11.4131
▁(18	-11.4131
▁107	-11.4133
▁persona	-11.4134
উ	-11.4134
▁meer	-11.4134
bek	-11.4137
▁یک	-11.4138
fil	-11.4138
▁เรื่อง	-11.4138
▁rb	-11.4139
▁rouen	-11.4139
▁3/3	-11.414
ander	-11.4141
tando	-11.4141
rão	-11.4143
▁mê	-11.4143
▁neto	-11.4144
lerin	-11.4145
3636}	-11.4146
▁tut	-11.4146
題	-11.4147
▁tournoi	-11.4148
▁बु	-11.415
jj	-11.4151
との	-11.4151
gold	-11.4151
▁andre	-11.4152
▁রা	-11.4152
大战	-11.4152
dul	-11.4152
ность	-11.4153
▁देखिए	-11.4153
ไหม	-11.4154
▁meses	-11.4154
▁뉴스	-11.4155
▁михаил	-11.4157
pia	-11.4158
force	-11.4158
歩	-11.4159
▁못	-11.416
▁corinthians	-11.416
▁इन	-11.4161
▁eh	-11.4162
▁baik	-11.4162
演出	-11.4162
キー	-11.4163
技术	-11.4164
rme	-11.4164
▁1995	-11.4166
▁japon	-11.4166
cum	-11.4167
special	-11.4169
▁soleil	-11.4169
▁له	-11.4169
烈	-11.417
++	-11.417
一人	-11.4171
lyric	-11.4172
▁slam	-11.4172
願	-11.4172
dog	-11.4173
營	-11.4173
บน	-11.4175
▁라	-11.4176
▁projekt	-11.4178
sey	-11.418
一個	-11.4181
▁pura	-11.4181
宇宙	-11.4182
품	-11.4184
▁bransoletki	-11.4184
▁cen	-11.4185
شی	-11.4185
2137	-11.4186
▁debut	-11.4186
模式	-11.4187
▁pasta	-11.4187
cita	-11.4187
▁đà	-11.4188
▁encore	-11.4189
38}	-11.4189
▁oto	-11.419
▁deniz	-11.419
翼	-11.4191
認	-11.4191
▁rasa	-11.4192
拆	-11.4193
▁81	-11.4194
職	-11.4194
▁dezembro	-11.4194
▁تسجيل	-11.4202
сс	-11.4203
▁grade	-11.4203
▁سهلة	-11.4203
醉	-11.4206
藝	-11.4207
▁pouco	-11.4207
▁path	-11.4207
***	-11.4208
▁二	-11.4212
🎵	-11.4213
▁morena	-11.4218
quin	-11.4218
cito	-11.4219
▁perry	-11.4219
258}	-11.4221
قر	-11.4221
lg	-11.4221
▁ستوريات	-11.4223
혁	-11.4224
wat	-11.4224
▁gali	-11.4225
▁школа	-11.4225
▁yourself	-11.4226
▁seru	-11.4228
诗	-11.4232
च्या	-11.4233
ния	-11.4233
▁takes	-11.4233
▁nin	-11.4233
نگ	-11.4233
したら	-11.4237
▁東	-11.4237
tje	-11.4237
ジー	-11.4238
رح	-11.4238
ление	-11.4238
▁tj	-11.4238
mana	-11.4238
▁первая	-11.4239
▁latihan	-11.4239
ины	-11.4239
ผี	-11.424
搭	-11.424
分析	-11.4241
研	-11.4241
許	-11.4242
▁warriors	-11.4243
isti	-11.4244
tc	-11.4245
itz	-11.4246
▁elsa	-11.4247
▁русская	-11.4248
▁فلم	-11.4248
#10	-11.4249
5000	-11.4249
▁내가	-11.4249
끼	-11.425
▁secreto	-11.4254
认	-11.4255
▁hộ	-11.4255
▁করবেন	-11.4255
тов	-11.4258
オンライン	-11.4258
裕	-11.4258
tima	-11.4259
فة	-11.4259
▁много	-11.426
дар	-11.426
यो	-11.426
▁kop	-11.4261
▁rota	-11.4264
▁cà	-11.4265
wh	-11.4267
jit	-11.4267
▁camping	-11.4267
bala	-11.4268
▁lie	-11.4268
乾	-11.427
▁#04	-11.427
▁carte	-11.427
▁valencia	-11.427
▁vtv	-11.4271
晶	-11.4271
▁ใน	-11.4271
▁diamante	-11.4272
▁fol	-11.4272
▁islamic	-11.4272
▁voc	-11.4272
পুর	-11.4275
尽	-11.4275
polis	-11.4276
▁weather	-11.4277
▁الخاص	-11.4277
يتي	-11.4278
▁ô	-11.4278
▁clara	-11.4279
▁groupe	-11.428
تنا	-11.428
▁filha	-11.4281
▁mirror	-11.4281
▁baper	-11.4281
ノー	-11.4282
▁warrior	-11.4282
▁joker	-11.4284
fon	-11.4287
▁cancion	-11.4287
笛	-11.4288
▁kucing	-11.4288
ngan	-11.4289
видео	-11.429
▁universal	-11.4291
▁galatasaray	-11.4293
▁rồng	-11.4293
▁род	-11.4294
▁현	-11.4296
▁zagrajmy	-11.4296
▁found	-11.4297
▁rosario	-11.4297
som	-11.4297
スペシャル	-11.4298
ชน	-11.4299
▁ghi	-11.43
183}	-11.43
▁gigante	-11.4302
▁playlist	-11.4303
▁八	-11.4303
टे	-11.4303
츨장	-11.4303
▁минут	-11.4304
#6	-11.4305
▁humor	-11.4306
▁laptop	-11.4307
▁nina	-11.4309
▁(15	-11.4309
▁generation	-11.4309
▁crea	-11.431
▁jeep	-11.431
▁الجمعة	-11.431
▁rossi	-11.4312
eña	-11.4312
荒	-11.4312
▁really	-11.4312
▁bow	-11.4312
▁شيخ	-11.4313
バイ	-11.4313
6734{	-11.4314
▁magia	-11.4314
부터	-11.4315
وية	-11.4315
❗	-11.4316
▁ballet	-11.4316
bos	-11.4316
blog	-11.4319
▁kadar	-11.4319
▁malang	-11.4319
مار	-11.432
鳳	-11.4321
▁estados	-11.4321
夫妻	-11.4321
▁العرب	-11.4321
▁parody	-11.4321
▁احد	-11.4321
▁mandi	-11.4322
▁カ	-11.4323
▁matar	-11.4323
▁comigo	-11.4323
▁pobre	-11.4324
▁전주	-11.4324
▁naam	-11.4326
stars	-11.4326
▁?!	-11.4327
比赛	-11.4327
▁favorite	-11.4327
든	-11.4328
▁lecture	-11.4328
优	-11.4328
▁!!!!!	-11.4329
/2018	-11.4331
▁بد	-11.4334
2.0	-11.4335
ical	-11.4335
ór	-11.4336
▁ariel	-11.4337
▁youtubers	-11.4338
▁saúde	-11.4338
▁chaos	-11.4338
▁uomo	-11.4339
▁porte	-11.4339
旧	-11.4339
纳	-11.4342
▁無	-11.4342
лив	-11.4343
ью	-11.4343
▁yayın	-11.4345
▁1996	-11.4345
legendado	-11.4345
▁commentary	-11.4346
แต่	-11.4346
▁74	-11.4347
▁score	-11.4347
▁sonu	-11.4348
▁❤❤	-11.4349
رق	-11.435
パー	-11.435
▁magazine	-11.435
ڪ	-11.435
▁풀	-11.4351
看看	-11.4351
톡	-11.4351
آل	-11.4352
▁campaña	-11.4352
▁explica	-11.4353
▁eso	-11.4353
мин	-11.4353
▁etc	-11.4354
▁pres	-11.4355
▁origins	-11.4355
▁bên	-11.4355
慢	-11.4357
kiss	-11.4358
▁لاعب	-11.4359
▁degli	-11.4359
vil	-11.4359
▁sep	-11.4359
vous	-11.436
誰	-11.4361
ボン	-11.4361
挑戰	-11.4362
sama	-11.4363
▁(17	-11.4364
▁worship	-11.4364
▁reklam	-11.4365
gado	-11.4365
▁phê	-11.4365
แดง	-11.4367
ppi	-11.4367
▁reis	-11.4369
antes	-11.4369
▁records	-11.4369
▁rafa	-11.437
▁mh	-11.4372
릴	-11.4372
क्ष	-11.4373
tari	-11.4374
▁lớn	-11.4375
▁mill	-11.4375
▁клуб	-11.4375
nier	-11.4377
وصف	-11.4378
eye	-11.4378
what	-11.4378
▁broken	-11.4379
▁competition	-11.438
دان	-11.4381
▁बोल	-11.4382
▁pays	-11.4382
بات	-11.4382
▁gha	-11.4383
】2018	-11.4383
pper	-11.4383
▁falando	-11.4385
肥	-11.4387
▁relax	-11.4389
▁gau	-11.4389
▁dk	-11.4389
duo	-11.4392
▁meilleur	-11.4393
▁gab	-11.4393
vier	-11.4393
روب	-11.4393
中文字幕	-11.4394
▁reg	-11.4395
▁пер	-11.4395
▁jou	-11.4395
cial	-11.4396
06.2019	-11.4396
▁দেখলে	-11.4396
ща	-11.4397
▁bebek	-11.4397
▁truth	-11.4397
хи	-11.4398
대학교	-11.4398
人妻	-11.4399
▁リ	-11.44
▁efsane	-11.4401
割	-11.4401
▁pap	-11.4404
▁smoke	-11.4404
jal	-11.4404
喊	-11.4405
徒	-11.4405
▁حبك	-11.4405
▁cultural	-11.4405
▁ross	-11.4406
sei	-11.4406
▁gobierno	-11.4406
での	-11.4407
▁legacy	-11.4407
怕	-11.4407
▁zin	-11.4407
ชาย	-11.4408
▁صح	-11.4408
▁zara	-11.4408
▁фа	-11.4408
艾	-11.4409
roll	-11.4409
oka	-11.441
party	-11.4413
ран	-11.4413
▁poly	-11.4414
jack	-11.4414
dzi	-11.4415
▁pare	-11.4416
▁zwei	-11.4416
▁olur	-11.4418
enie	-11.4419
▁leer	-11.4419
!!!!!!!	-11.442
▁대구출장안마	-11.442
▁ritmo	-11.4421
▁preguntas	-11.4421
▁reportage	-11.4424
▁nyanyi	-11.4424
▁plant	-11.4424
nka	-11.4425
อร์	-11.4426
lip	-11.4426
▁johnson	-11.4428
▁kampung	-11.4428
gé	-11.4428
吴	-11.4431
kaya	-11.4432
▁público	-11.4433
▁vega	-11.4435
▁動画	-11.4435
결	-11.4436
vet	-11.4436
▁kir	-11.4437
▁серии	-11.4437
▁télé	-11.4437
▁kỷ	-11.4437
展示	-11.4438
▁歌ってみた	-11.4438
▁pawan	-11.4438
🙂	-11.4439
▁mickey	-11.444
ws	-11.444
▁cricket	-11.4441
为什么	-11.4442
▁интервью	-11.4442
shan	-11.4443
▁onde	-11.4443
天堂	-11.4445
rut	-11.4445
▁laugh	-11.4449
キング	-11.4451
娱乐	-11.4451
يمة	-11.4452
ちゃ	-11.4452
フリー	-11.4452
▁گل	-11.4453
▁123	-11.4453
宿	-11.4453
▁แจก	-11.4454
▁esporte	-11.4454
vídeo	-11.4456
tai	-11.4456
▁private	-11.4456
▁الشعر	-11.4456
تن	-11.4456
▁sbs	-11.4457
▁عباس	-11.4457
عمل	-11.4458
▁البحر	-11.4458
▁rama	-11.446
▁있는	-11.4461
-02	-11.4461
▁зомби	-11.4462
▁daughter	-11.4463
▁cin	-11.4463
充	-11.4464
mez	-11.4465
▁เมื่อ	-11.4467
▁tir	-11.4468
▁bordeaux	-11.447
ast	-11.447
เอา	-11.447
溫	-11.4471
▁sekiro	-11.4473
nika	-11.4474
▁নি	-11.4475
▁akhir	-11.4476
lita	-11.4477
▁paolo	-11.4477
▁youth	-11.4478
▁nancy	-11.448
エン	-11.448
▁رح	-11.448
mou	-11.4481
◇	-11.4482
▁본	-11.4482
スマブラ	-11.4483
▁brutal	-11.4483
▁kitty	-11.4484
dat	-11.4486
采	-11.4487
▁ريال	-11.4488
▁marathi	-11.4489
▁bintang	-11.4489
▁rani	-11.4489
▁bravo	-11.4489
▁söz	-11.4491
▁부천	-11.4493
ible	-11.4494
看完	-11.4495
▁cul	-11.4495
銀	-11.4497
▁حياتي	-11.4499
取り	-11.4499
▁hus	-11.4499
▁lvl	-11.4499
▁سال	-11.45
▁accidente	-11.45
▁medio	-11.45
トリ	-11.45
事故	-11.4501
▁chip	-11.4501
วี	-11.4502
▁guerre	-11.4503
nq	-11.4503
шу	-11.4503
▁روحي	-11.4505
▁playerunknown	-11.4505
▁carbon	-11.4506
дан	-11.4506
キル	-11.4509
เอง	-11.451
زي	-11.451
▁분당	-11.451
▁ea	-11.4511
▁mulheres	-11.4513
alo	-11.4513
之旅	-11.4513
▁ذ	-11.4514
ines	-11.4514
▁wish	-11.4514
▁thủy	-11.4514
▁graça	-11.4515
▁dol	-11.4516
ização	-11.4516
台北	-11.4516
▁teacher	-11.4517
右	-11.4517
小说	-11.4518
▁obra	-11.4518
▁morre	-11.452
▁clube	-11.452
▁gibi	-11.4521
_3	-11.4522
傻	-11.4522
▁entra	-11.4523
▁niệm	-11.4525
мат	-11.4527
▁الرئيس	-11.4528
made	-11.4528
jang	-11.453
▁tải	-11.453
▁jardin	-11.453
mag	-11.4531
▁nerf	-11.4532
▁刘	-11.4532
▁doing	-11.4532
▁melo	-11.4534
▁busty	-11.4534
▁فل	-11.4534
3000	-11.4534
≑	-11.4535
▁bébé	-11.4536
ल्	-11.4536
راف	-11.4536
100%∫∫∫	-11.4537
▁कुछ	-11.4538
▁conte	-11.4538
렌	-11.454
▁كتاب	-11.4541
cao	-11.4542
▁وسلم	-11.4543
▁riding	-11.4543
▁самые	-11.4543
▁concours	-11.4543
兔	-11.4545
▁गायक	-11.4545
дел	-11.4546
敬	-11.4546
▁ground	-11.4547
মান	-11.4547
رى	-11.4548
しました	-11.4549
esp	-11.4549
圆	-11.455
▁ночь	-11.4551
▁jimmy	-11.4551
율	-11.4552
奖	-11.4552
เร	-11.4552
ones	-11.4553
▁رب	-11.4553
▁malo	-11.4556
▁dont	-11.4556
孤	-11.4557
▁blowjob	-11.4557
won	-11.4557
ans	-11.4557
▁ملا	-11.456
ún	-11.456
▁чу	-11.456
▁adventures	-11.456
▁84	-11.456
вин	-11.4561
▁ligne	-11.4563
▁yellow	-11.4563
skin	-11.4563
▁جميلة	-11.4564
ใคร	-11.4565
рен	-11.4565
▁cana	-11.4566
ガチ	-11.4567
▁warcraft	-11.4567
▁surah	-11.4568
▁kuch	-11.4568
▁enjoy	-11.457
▁aç	-11.457
ソン	-11.4572
▁mainan	-11.4573
▁سریال	-11.4573
ยัง	-11.4573
▁⭐	-11.4573
▁chương	-11.4573
▁resep	-11.4574
▁giu	-11.4574
▁mẫu	-11.4575
เพื่อน	-11.4575
タイ	-11.4575
生日	-11.4577
▁culo	-11.4577
😃	-11.4577
ড	-11.4578
▁país	-11.4579
▁bm	-11.4579
▁sexta	-11.4579
كو	-11.458
zet	-11.458
▁عندما	-11.4581
bug	-11.4582
▁بك	-11.4583
¡	-11.4584
▁presse	-11.4584
快乐	-11.4585
▁mud	-11.4585
-30	-11.4588
嫌	-11.459
▁square	-11.4591
▁berita	-11.4591
ñ	-11.4592
▁وما	-11.4593
▁bowl	-11.4594
бл	-11.4594
▁salto	-11.4595
城市	-11.4595
▁tướng	-11.4596
▁ade	-11.4596
莫	-11.4596
▁мультфильм	-11.4597
▁wol	-11.4597
》,	-11.4597
∥	-11.4598
▁الكل	-11.4599
pvp	-11.46
▁tone	-11.46
矢	-11.4601
▁kou	-11.4601
یا	-11.4602
▁holy	-11.4603
▁tutto	-11.4603
▁zeit	-11.4603
▁llega	-11.4604
迎	-11.4604
▁outdoor	-11.4606
▁sorteio	-11.4606
▁aw	-11.4608
▁solution	-11.4608
ial	-11.4608
▁الشاب	-11.4609
絵	-11.4609
сь	-11.4611
▁pierdes	-11.4612
▁hasil	-11.4612
aje	-11.4613
घ	-11.4614
▁komp	-11.4616
広	-11.4616
▁ри	-11.4617
延	-11.4617
owski	-11.4617
▁mele	-11.4617
block	-11.4618
▁sari	-11.4619
ffe	-11.4619
▁1994	-11.4619
艦これ	-11.4619
▁union	-11.462
免费	-11.4621
▁dinner	-11.4622
▁enrique	-11.4622
▁during	-11.4624
▁kadın	-11.4625
▁bes	-11.4626
طر	-11.4626
売	-11.4627
藍	-11.4627
▁달	-11.4628
fat	-11.4629
▁voiture	-11.4631
▁महिला	-11.4632
ark	-11.4632
엘	-11.4633
▁tanto	-11.4633
▁swift	-11.4634
レス	-11.4634
▁buena	-11.4635
▁toca	-11.4635
続	-11.4636
schen	-11.4636
чу	-11.4637
▁ataque	-11.4638
▁로	-11.4638
rx	-11.4638
year	-11.4638
▁귀	-11.4639
▁gf	-11.4639
值	-11.464
▁brian	-11.464
▁kri	-11.4642
gger	-11.4643
▁polis	-11.4643
▁tốt	-11.4644
▁blow	-11.4646
nio	-11.4646
▁رسم	-11.4647
owo	-11.4648
▁हा	-11.4649
isse	-11.4649
▁guerrero	-11.4649
ric	-11.465
▁comida	-11.4653
▁cachorro	-11.4655
باب	-11.4655
▁jouer	-11.4655
▁bond	-11.4657
vě	-11.4658
ลิ	-11.466
▁الأم	-11.4661
ref	-11.4662
เทพ	-11.4662
▁🤣	-11.4663
овые	-11.4665
專	-11.4667
ตาม	-11.4667
uba	-11.467
▁zé	-11.4673
眠	-11.4673
感動	-11.4673
▁brincando	-11.4676
card	-11.4677
▁font	-11.4677
シン	-11.4677
▁flex	-11.4678
▁গ	-11.4679
佩	-11.4679
自然	-11.468
ска	-11.468
▁doku	-11.4681
▁become	-11.4681
輝	-11.4681
จ้า	-11.4682
spot	-11.4682
席	-11.4683
▁ast	-11.4683
▁delhi	-11.4683
mun	-11.4683
▁rein	-11.4685
▁gece	-11.4685
孙	-11.4686
▁caro	-11.4688
▁projet	-11.469
▁kw	-11.4691
ってみた	-11.4693
▁pose	-11.4693
▁prepara	-11.4693
dİ	-11.4696
fla	-11.4697
▁bibi	-11.4697
▁bắn	-11.4698
ท์	-11.4698
柔	-11.4698
▁슈퍼	-11.4702
▁conversa	-11.4703
▁albert	-11.4703
▁cân	-11.4704
شا	-11.4704
▁دی	-11.4704
▁maquiagem	-11.4706
▁tah	-11.4706
▁ping	-11.4708
▁chuva	-11.4709
😥	-11.471
liği	-11.4712
راح	-11.4714
▁cruise	-11.4715
sbs	-11.4715
hol	-11.4715
▁babu	-11.4715
tb	-11.4715
▁(13	-11.4715
▁kris	-11.4716
rq	-11.4716
▁deutsche	-11.4717
條	-11.4718
누	-11.4719
gay	-11.4719
▁lihat	-11.472
▁criança	-11.472
👈	-11.4721
▁click	-11.4722
▁bale	-11.4722
▁ремонт	-11.4722
vir	-11.4722
amor	-11.4722
▁pros	-11.4722
チーム	-11.4723
▁rajasthani	-11.4723
▁tits	-11.4723
基本	-11.4724
復	-11.4725
刻	-11.4725
バック	-11.4726
▁منصور	-11.4726
▁الشهيد	-11.4728
▁ulang	-11.4729
▁coin	-11.473
▁وك	-11.473
货	-11.473
▁때	-11.473
精華	-11.4731
▁gör	-11.4731
คือ	-11.4731
▁مست	-11.4731
▁trọng	-11.4732
▁मि	-11.4733
浦	-11.4733
▁bois	-11.4734
庄	-11.4735
テレビ	-11.4735
▁мат	-11.4736
778}	-11.4736
▁71	-11.4736
ภ	-11.4737
▁би	-11.4738
▁italy	-11.4738
▁pais	-11.4739
▁glass	-11.4741
▁andy	-11.4741
▁carolina	-11.4742
ả	-11.4743
。【	-11.4743
▁location	-11.4744
▁banco	-11.4745
77.	-11.4745
рус	-11.4745
tinho	-11.4745
ประ	-11.4747
▁asa	-11.4747
▁conan	-11.4748
ư	-11.475
▁tuyển	-11.475
▁वा	-11.475
gada	-11.475
」「	-11.475
▁corrida	-11.4751
▁розыгрыш	-11.4752
▁лайк	-11.4752
▁че	-11.4753
?」	-11.4753
▁đôi	-11.4753
全集	-11.4754
ダン	-11.4754
さんと	-11.4754
▁sangat	-11.4755
▁timelapse	-11.4755
出来	-11.4756
悪	-11.4756
▁あ	-11.4757
▁oktober	-11.4758
י	-11.4758
鳴	-11.476
lere	-11.4762
kie	-11.4763
เน	-11.4763
▁जि	-11.4763
ingen	-11.4763
bed	-11.4764
▁2017)	-11.4764
好き	-11.4765
वार	-11.4765
▁کار	-11.4766
▁aya	-11.4767
可爱	-11.4768
▁vivi	-11.4769
ポイント	-11.4769
息	-11.477
8109	-11.477
일차	-11.4771
▁regional	-11.4771
▁pom	-11.4772
량	-11.4773
絶	-11.4773
▁cats	-11.4774
▁strange	-11.4775
▁backstage	-11.4775
amore	-11.4776
▁فا	-11.4776
▁mancing	-11.4776
سم	-11.4777
▁county	-11.4777
▁শ	-11.4777
rick	-11.4778
ミニ	-11.4778
tage	-11.4778
dang	-11.4779
▁everything	-11.478
▁1990	-11.4781
▁actor	-11.4781
▁lebih	-11.4781
▁آخر	-11.4782
▁danger	-11.4782
▁flying	-11.4782
coco	-11.4783
nı	-11.4783
гер	-11.4783
▁konser	-11.4783
▁anno	-11.4785
▁dieu	-11.4786
▁रंग	-11.4788
▁š	-11.479
nej	-11.479
essa	-11.4792
노래	-11.4794
從	-11.4798
fy	-11.48
ゲー	-11.4802
剪	-11.4802
88】	-11.4802
mmer	-11.4803
lite	-11.4804
list	-11.4804
قة	-11.4805
▁novela	-11.4806
▁setup	-11.4806
▁leonardo	-11.4807
нес	-11.4811
▁بسبب	-11.4811
三立新聞台	-11.4813
şi	-11.4813
ern	-11.4813
ments	-11.4813
hé	-11.4815
jd	-11.4817
▁안산	-11.4817
捕	-11.4818
water	-11.4818
fet	-11.482
리는	-11.482
▁tác	-11.482
▁160	-11.4822
▁münchen	-11.4824
▁einer	-11.4826
▁să	-11.4827
вол	-11.4827
▁laut	-11.4828
দা	-11.4828
▁navi	-11.4828
한국	-11.4829
▁spark	-11.4831
сто	-11.4831
bee	-11.4832
レビュー	-11.4832
قه	-11.4835
चे	-11.4835
▁lago	-11.4837
▁playthrough	-11.4838
▁member	-11.4838
▁我的世界	-11.4838
▁bueno	-11.4838
▁polsku	-11.4839
▁العربي	-11.4839
เครื่อง	-11.4839
▁คลิป	-11.4841
▁hôn	-11.4841
神秘	-11.4842
▁ข่าว	-11.4843
▁trắng	-11.4844
tation	-11.4846
▁друг	-11.4846
tero	-11.4846
▁bocah	-11.4847
▁schwarz	-11.4849
▁karo	-11.4851
▁tính	-11.4851
▁stunt	-11.4851
▁dung	-11.4851
750	-11.4852
jos	-11.4852
▁:(	-11.4852
告白	-11.4852
?【	-11.4853
▁공연	-11.4853
伴	-11.4854
▁ramos	-11.4855
ネット	-11.4855
ают	-11.4856
▁aller	-11.4857
▁dungeon	-11.4857
▁المت	-11.4857
▁حد	-11.4857
▁tia	-11.4858
โร	-11.4859
▁3000	-11.4859
ينا	-11.4859
int	-11.4859
鏡	-11.486
▁thing	-11.486
▁gd	-11.4861
▁gigi	-11.4862
▁chaîne	-11.4863
▁дети	-11.4864
賢	-11.4866
▁꽃	-11.4867
촌	-11.4868
▁วัน	-11.4869
кор	-11.4869
raw	-11.4869
評	-11.487
科技	-11.487
▁muss	-11.487
tf	-11.4871
▁experiment	-11.4872
短片	-11.4872
対決	-11.4875
▁長	-11.4876
▁survivor	-11.4877
rez	-11.4877
▁kbs	-11.4879
杉	-11.4879
鸟	-11.4879
นี่	-11.488
any	-11.4881
łu	-11.4881
▁rok	-11.4882
▁suscriptores	-11.4882
▁said	-11.4884
画像	-11.4885
▁ات	-11.4886
ması	-11.4886
nna	-11.4886
▁ariana	-11.4887
▁美国	-11.4888
colo	-11.4888
entes	-11.489
▁وع	-11.4891
ถ	-11.4892
▁squads	-11.4893
стер	-11.4894
▁viagem	-11.4894
▁दि	-11.4894
▁nation	-11.4895
▁용	-11.4895
▁خو	-11.4895
▁continua	-11.4895
vez	-11.4896
▁clipe	-11.4898
ลี	-11.4899
enia	-11.4899
终于	-11.49
▁luigi	-11.49
oy	-11.49
▁cn	-11.49
мет	-11.4901
学习	-11.4902
けど	-11.4903
صح	-11.4904
▁coeur	-11.4904
hey	-11.4904
▁اشترك	-11.4904
matic	-11.4905
▁bangladesh	-11.4906
sio	-11.4907
▁karl	-11.4907
▁نس	-11.491
▁जु	-11.491
▁nóng	-11.491
▁rtl	-11.491
-{☎	-11.4912
習	-11.4912
قلب	-11.4913
▁torna	-11.4914
رم	-11.4914
▁quiz	-11.4914
قول	-11.4915
▁novinha	-11.4915
108	-11.4916
▁dw	-11.4917
▁bgm	-11.4919
▁हु	-11.4923
▁dx	-11.4923
▁fate	-11.4923
ques	-11.4924
発車	-11.4925
中央	-11.4925
男性	-11.4926
rta	-11.4927
350	-11.4927
▁morgen	-11.4928
余	-11.4928
▁adrian	-11.4929
▁luta	-11.493
增	-11.493
dak	-11.4932
▁игре	-11.4933
▁gum	-11.4933
inda	-11.4934
▁soirée	-11.4934
ák	-11.4935
▁---	-11.4937
▁trying	-11.4937
▁undertale	-11.4938
▁trở	-11.494
sé	-11.4942
▁(14	-11.4944
sang	-11.4944
▁puede	-11.4944
魔法	-11.4944
▁meio	-11.4947
یر	-11.4947
アー	-11.4947
▁uc	-11.4948
▁silent	-11.4949
▁pierwszy	-11.4949
arna	-11.4949
▁ç	-11.4949
▁البيت	-11.495
awa	-11.495
▁giorno	-11.4952
▁brain	-11.4953
▁ý	-11.4953
▁db	-11.4953
▁trái	-11.4954
md	-11.4954
জি	-11.4956
tine	-11.4956
aime	-11.4959
wali	-11.496
▁edi	-11.4961
ড়া	-11.4963
रु	-11.4963
kle	-11.4965
ং	-11.4966
▁安	-11.4966
▁billy	-11.4967
▁mvi	-11.4967
▁ayuda	-11.4967
▁obat	-11.4968
พิ	-11.4968
elen	-11.4969
اخ	-11.4969
▁لعبه	-11.497
▁tiến	-11.4971
anza	-11.4971
让人	-11.4972
last	-11.4972
▁diya	-11.4974
領	-11.4975
どう	-11.4976
▁guns	-11.4978
▁cou	-11.4978
▁vuelta	-11.4979
앤	-11.4979
2:	-11.4979
▁encuentro	-11.4981
↗	-11.4981
oj	-11.4983
簡単	-11.4983
▁لقطات	-11.4983
มหา	-11.4984
此	-11.4984
▁chase	-11.4984
▁arc	-11.4985
▁금	-11.4985
eux	-11.4987
blind	-11.4987
▁ло	-11.4988
▁002	-11.4988
董	-11.4988
▁casual	-11.4989
▁diesel	-11.4989
作業用	-11.499
▁рецепт	-11.499
什麼	-11.4991
▁roger	-11.4992
▁roda	-11.4992
▁lovely	-11.4993
▁animals	-11.4993
▁sung	-11.4994
パズドラ	-11.4995
▁kaza	-11.4995
妹子	-11.4996
▁др	-11.4996
▁حصري	-11.4998
ぺ	-11.5
pers	-11.5
bey	-11.5
▁infinite	-11.5
▁punch	-11.5
凱	-11.5001
▁connect	-11.5002
▁thvl	-11.5002
▁муж	-11.5002
جه	-11.5002
▁사람	-11.5002
▁chand	-11.5002
5900{	-11.5003
テン	-11.5004
律	-11.5004
▁بطريقة	-11.5006
▁mohamed	-11.5009
▁cartoons	-11.501
uddin	-11.501
▁pag	-11.501
妻子	-11.501
💦	-11.5011
陸	-11.5011
やって	-11.5011
▁안양	-11.5014
▁washington	-11.5015
///	-11.5015
ple	-11.5015
데이	-11.5016
▁nonton	-11.5017
ثر	-11.502
劍	-11.502
したい	-11.502
▁punta	-11.5021
あの	-11.5022
โก	-11.5023
tí	-11.5024
▁fear	-11.5024
▁saja	-11.5024
▁تك	-11.5025
無料	-11.5026
▁طريق	-11.5027
▁фото	-11.5027
▁dildo	-11.5027
▁ú	-11.5029
▁tales	-11.503
▁دخول	-11.5031
▁मौत	-11.5031
▁cours	-11.5032
راس	-11.5033
▁tóc	-11.5033
동출장안마	-11.5033
▁tenta	-11.5035
惹	-11.5035
▁nhỏ	-11.5035
晴	-11.5035
▁홍	-11.5036
���	-11.5037
dum	-11.5037
ぃ	-11.5038
▁rub	-11.5038
液	-11.5039
▁theater	-11.5041
▁tàu	-11.5042
▁bloco	-11.5042
adores	-11.5042
▁kereta	-11.5045
▁два	-11.5046
公演	-11.5046
▁quad	-11.5047
णा	-11.5047
ريد	-11.5048
ضر	-11.5049
항	-11.5049
▁speciale	-11.5049
維	-11.5049
▁вам	-11.5051
ас	-11.5052
▁soir	-11.5053
105	-11.5053
これ	-11.5054
▁carlo	-11.5054
▁sona	-11.5055
wari	-11.5055
어요	-11.5056
恵	-11.5056
ncia	-11.5056
▁thrones	-11.5057
▁hãy	-11.5057
heart	-11.5058
▁lua	-11.5058
▁gostosa	-11.5058
しい	-11.5058
▁mantap	-11.5058
ery	-11.5061
国家	-11.5062
▁voce	-11.5062
ษ	-11.5064
▁negeri	-11.5065
fight	-11.5065
▁المقطع	-11.5065
予選	-11.5068
▁combate	-11.5068
cool	-11.5069
▁karma	-11.5069
▁temp	-11.507
▁avi	-11.5071
▁tipo	-11.5071
lb	-11.5072
徐	-11.5072
▁preto	-11.5073
モード	-11.5073
▁출	-11.5074
▁추	-11.5074
ตอน	-11.5074
رات	-11.5075
▁parle	-11.5075
nca	-11.5076
▁oi	-11.5077
움	-11.5078
タイヤ	-11.5078
▁رقم	-11.5079
▁menor	-11.5081
▁บ้าน	-11.5081
was	-11.5083
▁reading	-11.5083
drum	-11.5085
คิด	-11.5085
▁facial	-11.5085
جل	-11.5086
▁83	-11.5086
▁orlando	-11.5088
نى	-11.5088
台湾	-11.5088
节目	-11.5088
瓶	-11.5089
홀	-11.5089
▁luồng	-11.509
人的	-11.509
▁жа	-11.5091
▁rahul	-11.5092
▁pote	-11.5094
琪	-11.5095
▁mtv	-11.5096
pus	-11.5096
幻	-11.5098
▁luiz	-11.5098
illon	-11.5099
▁五	-11.5099
▁mở	-11.51
▁ध	-11.5101
▁harus	-11.5102
pres	-11.5103
欢	-11.5104
▁chạy	-11.5104
▁clancy	-11.5105
▁begini	-11.5105
√	-11.5107
ส์	-11.5107
▁رضا	-11.5108
修羅場	-11.5108
post	-11.511
888	-11.5111
ヶ	-11.5112
ながら	-11.5112
▁bitch	-11.5112
▁perder	-11.5114
▁خبر	-11.5115
▁virgen	-11.5115
▁hold	-11.5116
▁capo	-11.5116
▁yara	-11.5117
▁irmã	-11.5117
▁chama	-11.5118
edi	-11.5118
▁novos	-11.5119
▁참	-11.512
dark	-11.5123
まったり	-11.5123
ffer	-11.5123
vida	-11.5124
рис	-11.5124
▁size	-11.5125
▁gad	-11.5127
▁đen	-11.5128
▁fanny	-11.5128
▁qi	-11.5129
ог	-11.513
promo	-11.513
soy	-11.5131
▁aprenda	-11.5134
▁railway	-11.5135
▁الحاج	-11.5136
습니다	-11.5136
[...]
